<unk>	0
<s>	0
</s>	0
en	-0
er	-1
in	-2
▁t	-3
ch	-4
▁a	-5
▁d	-6
▁w	-7
▁s	-8
▁th	-9
nd	-10
ie	-11
es	-12
is	-13
at	-14
on	-15
it	-16
▁m	-17
an	-18
as	-19
re	-20
▁the	-21
▁b	-22
▁h	-23
ich	-24
▁o	-25
▁e	-26
ll	-27
▁u	-28
▁g	-29
or	-30
ou	-31
ar	-32
▁f	-33
▁in	-34
te	-35
ing	-36
▁I	-37
▁n	-38
▁S	-39
le	-40
▁c	-41
▁p	-42
▁die	-43
▁A	-44
▁to	-45
ir	-46
▁v	-47
al	-48
▁is	-49
▁ein	-50
▁of	-51
▁and	-52
us	-53
om	-54
ig	-55
▁W	-56
▁l	-57
ed	-58
▁T	-59
▁k	-60
▁und	-61
un	-62
▁be	-63
▁z	-64
ten	-65
ur	-66
el	-67
ut	-68
▁das	-69
ion	-70
▁D	-71
▁M	-72
▁y	-73
▁that	-74
et	-75
ro	-76
ent	-77
im	-78
▁ha	-79
ic	-80
▁we	-81
ere	-82
ra	-83
st	-84
▁B	-85
▁E	-86
▁you	-87
em	-88
▁der	-89
▁wh	-90
hr	-91
ter	-92
ve	-93
▁zu	-94
il	-95
ow	-96
▁wir	-97
▁G	-98
▁ist	-99
▁it	-100
▁se	-101
am	-102
▁an	-103
ot	-104
icht	-105
ber	-106
gen	-107
id	-108
ach	-109
se	-110
ier	-111
ind	-112
lich	-113
ge	-114
ol	-115
ben	-116
sch	-117
uf	-118
▁re	-119
▁F	-120
▁K	-121
▁U	-122
ke	-123
▁un	-124
all	-125
▁P	-126
▁ver	-127
▁so	-128
▁on	-129
▁L	-130
▁ich	-131
▁es	-132
he	-133
ct	-134
▁was	-135
ay	-136
▁H	-137
▁me	-138
ung	-139
▁st	-140
▁And	-141
▁er	-142
ver	-143
▁N	-144
▁al	-145
de	-146
if	-147
▁den	-148
um	-149
▁this	-150
▁sie	-151
▁-	-152
and	-153
den	-154
▁Sie	-155
▁j	-156
ck	-157
ür	-158
uch	-159
nen	-160
op	-161
sen	-162
ld	-163
▁all	-164
▁nicht	-165
be	-166
ation	-167
▁"	-168
▁von	-169
▁--	-170
▁for	-171
ce	-172
▁R	-173
▁dass	-174
ht	-175
ine	-176
▁eine	-177
ann	-178
▁ab	-179
▁V	-180
▁r	-181
▁auf	-182
▁als	-183
ill	-184
▁im	-185
est	-186
▁do	-187
der	-188
ag	-189
hen	-190
▁Und	-191
her	-192
▁ne	-193
ess	-194
▁mit	-195
▁ge	-196
ly	-197
▁J	-198
ith	-199
ste	-200
▁are	-201
isch	-202
▁sch	-203
▁wie	-204
ally	-205
ul	-206
▁uns	-207
▁C	-208
▁man	-209
aus	-210
enn	-211
▁war	-212
▁with	-213
▁le	-214
oo	-215
▁have	-216
▁So	-217
au	-218
kt	-219
▁he	-220
men	-221
▁they	-222
▁sich	-223
os	-224
out	-225
▁Th	-226
▁mo	-227
ers	-228
we	-229
▁can	-230
▁as	-231
▁Z	-232
▁O	-233
▁wor	-234
ab	-235
iv	-236
ant	-237
ad	-238
▁Ich	-239
ib	-240
über	-241
▁We	-242
▁pro	-243
ort	-244
ust	-245
ern	-246
▁i	-247
und	-248
▁In	-249
ön	-250
▁sind	-251
▁what	-252
▁com	-253
ies	-254
▁1	-255
▁sp	-256
▁go	-257
▁at	-258
▁dies	-259
af	-260
▁St	-261
▁für	-262
pp	-263
ould	-264
ien	-265
ze	-266
▁fr	-267
▁haben	-268
art	-269
▁ex	-270
ist	-271
ik	-272
▁about	-273
ne	-274
ese	-275
▁hat	-276
▁not	-277
▁aus	-278
▁The	-279
▁um	-280
iel	-281
▁ch	-282
▁über	-283
ive	-284
ahr	-285
og	-286
oll	-287
▁des	-288
▁Le	-289
hl	-290
▁de	-291
▁or	-292
▁som	-293
▁kön	-294
ight	-295
▁wer	-296
▁dem	-297
ein	-298
▁Das	-299
end	-300
▁Sch	-301
qu	-302
▁Es	-303
ate	-304
▁my	-305
▁there	-306
mer	-307
▁pe	-308
ike	-309
▁Wir	-310
▁sa	-311
ink	-312
▁ma	-313
ople	-314
igen	-315
."	-316
▁con	-317
▁sh	-318
pt	-319
ity	-320
▁Er	-321
▁It	-322
th	-323
och	-324
▁one	-325
▁people	-326
▁diese	-327
elt	-328
ff	-329
▁like	-330
▁from	-331
ide	-332
▁Be	-333
tw	-334
ran	-335
esch	-336
ass	-337
ure	-338
ute	-339
▁te	-340
▁ar	-341
ause	-342
▁us	-343
00	-344
▁da	-345
▁also	-346
▁our	-347
ang	-348
now	-349
ensch	-350
▁einen	-351
▁wenn	-352
▁but	-353
▁bec	-354
ast	-355
ru	-356
zen	-357
▁Die	-358
ook	-359
▁out	-360
▁Ge	-361
▁get	-362
▁ih	-363
ap	-364
ieren	-365
ted	-366
▁Ar	-367
▁know	-368
▁just	-369
▁2	-370
▁Pro	-371
▁können	-372
▁An	-373
▁pl	-374
ick	-375
▁thing	-376
▁werden	-377
ungen	-378
ear	-379
iert	-380
▁Y	-381
▁oder	-382
▁vor	-383
▁sein	-384
ild	-385
▁her	-386
▁them	-387
alk	-388
oug	-389
▁ent	-390
ub	-391
▁But	-392
ite	-393
per	-394
▁these	-395
▁very	-396
▁up	-397
▁if	-398
▁think	-399
ah	-400
▁who	-401
orm	-402
our	-403
▁Ver	-404
ige	-405
ound	-406
one	-407
▁mach	-408
iz	-409
▁kann	-410
▁Al	-411
▁by	-412
ain	-413
▁aber	-414
ken	-415
▁einer	-416
▁Mensch	-417
od	-418
▁auch	-419
ack	-420
▁going	-421
lle	-422
▁einem	-423
ät	-424
ial	-425
llen	-426
▁gen	-427
▁some	-428
ud	-429
eren	-430
▁see	-431
▁Un	-432
▁act	-433
▁Aber	-434
olog	-435
▁when	-436
pl	-437
▁nach	-438
ob	-439
ibt	-440
▁dar	-441
zt	-442
ard	-443
nt	-444
änd	-445
▁your	-446
age	-447
ry	-448
schaf	-449
▁en	-450
ame	-451
▁nur	-452
▁more	-453
ft	-454
▁Re	-455
▁because	-456
▁mein	-457
ert	-458
▁year	-459
▁had	-460
ischen	-461
reat	-462
▁wird	-463
▁etw	-464
▁sehr	-465
ör	-466
ime	-467
▁will	-468
to	-469
ble	-470
▁Menschen	-471
urch	-472
▁hier	-473
ise	-474
fen	-475
▁would	-476
ück	-477
▁ever	-478
ue	-479
▁how	-480
ug	-481
ect	-482
▁which	-483
itt	-484
ond	-485
ose	-486
ple	-487
ood	-488
äch	-489
▁look	-490
ous	-491
are	-492
▁their	-493
▁am	-494
keit	-495
▁were	-496
ak	-497
▁–	-498
▁Te	-499
▁work	-500
▁really	-501
issen	-502
ri	-503
ther	-504
▁mich	-505
ign	-506
hal	-507
sp	-508
ually	-509
hing	-510
chen	-511
▁gibt	-512
▁inter	-513
me	-514
▁♫	-515
ong	-516
heit	-517
▁Ze	-518
▁Jahr	-519
▁way	-520
▁gl	-521
▁gro	-522
▁wur	-523
▁per	-524
▁dann	-525
du	-526
▁vie	-527
▁world	-528
ven	-529
iff	-530
chn	-531
rie	-532
▁has	-533
▁qu	-534
sten	-535
▁Ih	-536
▁here	-537
lie	-538
▁ste	-539
▁fe	-540
wo	-541
▁Sp	-542
▁ihr	-543
ater	-544
ions	-545
ment	-546
ia	-547
▁noch	-548
▁time	-549
ace	-550
▁You	-551
ough	-552
▁etwas	-553
ommen	-554
▁then	-555
ore	-556
schaft	-557
▁Welt	-558
▁other	-559
▁This	-560
▁Ein	-561
act	-562
än	-563
tern	-564
▁into	-565
ac	-566
▁every	-567
▁mir	-568
▁say	-569
▁Se	-570
▁don	-571
▁sehen	-572
ren	-573
▁Als	-574
▁habe	-575
▁bet	-576
sel	-577
ank	-578
auf	-579
▁mus	-580
ische	-581
▁could	-582
▁dieser	-583
▁actually	-584
▁pr	-585
▁durch	-586
▁mehr	-587
▁zur	-588
beit	-589
ip	-590
▁ke	-591
ens	-592
ult	-593
lichen	-594
les	-595
▁want	-596
▁bra	-597
▁sag	-598
▁Wh	-599
ner	-600
▁where	-601
▁jed	-602
▁years	-603
yste	-604
▁things	-605
▁now	-606
▁ag	-607
ring	-608
▁gr	-609
▁Leben	-610
ED	-611
▁did	-612
▁viel	-613
cht	-614
liche	-615
ical	-616
▁Now	-617
rans	-618
etzt	-619
▁Fra	-620
▁alle	-621
▁sc	-622
form	-623
▁somet	-624
▁Wenn	-625
▁find	-626
ice	-627
▁been	-628
▁TED	-629
▁ro	-630
▁bei	-631
zu	-632
▁Ch	-633
▁They	-634
▁make	-635
blem	-636
üs	-637
▁any	-638
▁cl	-639
▁comp	-640
ome	-641
▁diff	-642
▁happ	-643
ile	-644
▁po	-645
gan	-646
ire	-647
hn	-648
iver	-649
▁Zeit	-650
ystem	-651
▁ob	-652
ake	-653
▁let	-654
▁no	-655
▁He	-656
▁zum	-657
fach	-658
▁need	-659
▁tra	-660
fl	-661
ory	-662
rei	-663
ph	-664
▁gan	-665
▁unsere	-666
klich	-667
▁wurde	-668
ans	-669
▁mö	-670
inge	-671
ife	-672
irst	-673
▁part	-674
▁said	-675
ähr	-676
▁unter	-677
ree	-678
ßen	-679
mt	-680
▁over	-681
wer	-682
▁bl	-683
▁sel	-684
▁wür	-685
▁right	-686
gt	-687
chte	-688
che	-689
▁Ihnen	-690
▁lo	-691
▁Gesch	-692
ys	-693
ungs	-694
▁ihre	-695
assen	-696
▁zwe	-697
▁something	-698
able	-699
chnolog	-700
iter	-701
▁machen	-702
als	-703
▁back	-704
ger	-705
ount	-706
illion	-707
▁wo	-708
ark	-709
fü	-710
▁two	-711
▁3	-712
▁than	-713
ents	-714
▁bu	-715
▁Ne	-716
000	-717
▁much	-718
▁einfach	-719
pr	-720
aten	-721
▁got	-722
▁wirklich	-723
▁call	-724
acht	-725
▁tun	-726
▁Kind	-727
▁ze	-728
▁new	-729
▁kind	-730
▁immer	-731
ations	-732
bst	-733
▁first	-734
▁those	-735
▁talk	-736
erson	-737
▁meine	-738
▁bes	-739
ange	-740
ittle	-741
fr	-742
▁weil	-743
ord	-744
▁kon	-745
erst	-746
▁fü	-747
isten	-748
▁little	-749
▁imp	-750
own	-751
av	-752
cent	-753
▁Gr	-754
▁Also	-755
ale	-756
▁woll	-757
▁lot	-758
▁res	-759
▁ra	-760
?"	-761
▁beg	-762
iger	-763
rit	-764
▁spe	-765
eln	-766
way	-767
▁Or	-768
▁she	-769
▁his	-770
▁ph	-771
▁bis	-772
▁unser	-773
▁ac	-774
ase	-775
ats	-776
▁dis	-777
hmen	-778
▁müs	-779
▁kom	-780
ath	-781
▁Was	-782
▁hatte	-783
vel	-784
▁co	-785
▁That	-786
▁pre	-787
▁most	-788
▁Man	-789
nte	-790
▁dieses	-791
uchen	-792
▁kle	-793
leich	-794
ody	-795
▁hum	-796
▁ges	-797
uen	-798
▁life	-799
är	-800
hlen	-801
▁only	-802
▁dam	-803
glich	-804
▁real	-805
ktion	-806
▁keine	-807
ition	-808
ated	-809
▁ad	-810
ely	-811
▁diesem	-812
▁wissen	-813
schie	-814
▁Leute	-815
ish	-816
ichte	-817
▁even	-818
mal	-819
▁Art	-820
▁müssen	-821
▁day	-822
ram	-823
inn	-824
bar	-825
▁thr	-826
ance	-827
▁19	-828
▁star	-829
ok	-830
xt	-831
aut	-832
igkeit	-833
ons	-834
▁soll	-835
cri	-836
▁sol	-837
erent	-838
fe	-839
▁Vor	-840
gr	-841
other	-842
▁viele	-843
iß	-844
▁pass	-845
▁lie	-846
▁vers	-847
▁take	-848
▁hel	-849
▁ide	-850
▁different	-851
▁many	-852
▁waren	-853
▁andere	-854
▁Dinge	-855
▁fl	-856
▁good	-857
▁20	-858
ges	-859
wn	-860
▁sagen	-861
▁groß	-862
▁tr	-863
unden	-864
▁Jahren	-865
▁diesen	-866
▁sagte	-867
int	-868
gl	-869
▁su	-870
▁ind	-871
ds	-872
ict	-873
▁Trans	-874
▁eines	-875
▁does	-876
▁bef	-877
▁bin	-878
▁through	-879
▁nat	-880
▁down	-881
get	-882
ors	-883
▁show	-884
ell	-885
ammen	-886
tit	-887
ont	-888
cript	-889
▁Sub	-890
▁Aus	-891
gend	-892
▁What	-893
▁around	-894
▁There	-895
off	-896
urn	-897
▁cont	-898
▁hin	-899
▁zwei	-900
ty	-901
▁5	-902
ution	-903
igt	-904
iss	-905
ient	-906
▁put	-907
▁Talk	-908
▁gew	-909
ität	-910
▁verb	-911
tel	-912
▁Wie	-913
▁Auf	-914
▁jetzt	-915
▁Me	-916
▁bek	-917
▁anderen	-918
▁kein	-919
▁wieder	-920
ience	-921
▁gut	-922
usammen	-923
cess	-924
ary	-925
ible	-926
▁em	-927
▁10	-928
ahre	-929
▁tell	-930
ichtig	-931
lleicht	-932
▁use	-933
▁Der	-934
▁off	-935
oc	-936
titles	-937
vol	-938
▁Subtitles	-939
▁Transcript	-940
ian	-941
▁being	-942
▁glau	-943
▁En	-944
ious	-945
▁Unter	-946
ought	-947
auen	-948
oss	-949
▁selbst	-950
ars	-951
▁comm	-952
▁alles	-953
igh	-954
▁würde	-955
ual	-956
▁problem	-957
ss	-958
arn	-959
ower	-960
▁Dies	-961
▁nie	-962
▁inc	-963
▁gu	-964
▁bring	-965
ekt	-966
att	-967
ede	-968
ful	-969
▁happen	-970
ep	-971
▁same	-972
▁damit	-973
▁Ind	-974
▁stud	-975
ün	-976
▁ins	-977
▁best	-978
ism	-979
▁fun	-980
▁4	-981
geb	-982
▁try	-983
▁du	-984
llt	-985
▁wen	-986
▁human	-987
ject	-988
▁Mit	-989
omen	-990
▁gem	-991
halten	-992
▁fact	-993
▁Pl	-994
tet	-995
hren	-996
tra	-997
yp	-998
nis	-999
▁come	-1000
iden	-1001
amil	-1002
day	-1003
ost	-1004
▁geht	-1005
ces	-1006
▁sur	-1007
▁Jahre	-1008
old	-1009
▁count	-1010
▁may	-1011
▁doing	-1012
äl	-1013
▁big	-1014
▁great	-1015
formation	-1016
ting	-1017
ade	-1018
uss	-1019
▁three	-1020
▁zurück	-1021
ically	-1022
▁lang	-1023
▁gesch	-1024
ail	-1025
▁Ges	-1026
▁sm	-1027
▁system	-1028
ics	-1029
ction	-1030
▁sim	-1031
▁end	-1032
▁start	-1033
▁wä	-1034
▁hal	-1035
fter	-1036
ives	-1037
▁Her	-1038
▁muss	-1039
▁Um	-1040
▁bit	-1041
ivers	-1042
▁denn	-1043
ucht	-1044
▁weiter	-1045
▁If	-1046
▁ask	-1047
▁dec	-1048
io	-1049
kl	-1050
▁build	-1051
▁Bl	-1052
öß	-1053
▁pol	-1054
piel	-1055
▁well	-1056
▁zw	-1057
ves	-1058
▁exper	-1059
▁percent	-1060
▁produ	-1061
ating	-1062
▁ger	-1063
▁app	-1064
▁schon	-1065
▁heraus	-1066
thing	-1067
▁klein	-1068
▁ir	-1069
ving	-1070
▁bas	-1071
▁Fl	-1072
▁called	-1073
ächlich	-1074
▁hand	-1075
▁dav	-1076
ork	-1077
▁ben	-1078
üt	-1079
rä	-1080
self	-1081
ock	-1082
nten	-1083
▁pa	-1084
ize	-1085
red	-1086
▁dr	-1087
teil	-1088
▁quest	-1089
▁Arbeit	-1090
ool	-1091
agen	-1092
▁gra	-1093
az	-1094
ler	-1095
its	-1096
▁again	-1097
▁technolog	-1098
gel	-1099
▁ganz	-1100
ates	-1101
ahl	-1102
▁child	-1103
ull	-1104
ins	-1105
▁ele	-1106
▁Amer	-1107
ek	-1108
▁rel	-1109
▁vielleicht	-1110
▁Ide	-1111
bt	-1112
zent	-1113
▁ihnen	-1114
▁made	-1115
imes	-1116
▁Well	-1117
alt	-1118
▁möchte	-1119
cial	-1120
▁Teil	-1121
▁mak	-1122
▁learn	-1123
▁beh	-1124
▁zusammen	-1125
▁Afr	-1126
fahr	-1127
▁long	-1128
etz	-1129
▁For	-1130
ities	-1131
▁rem	-1132
▁import	-1133
▁Mus	-1134
▁why	-1135
▁own	-1136
hne	-1137
▁Kinder	-1138
sche	-1139
▁Land	-1140
▁einz	-1141
▁should	-1142
▁design	-1143
▁Ste	-1144
inden	-1145
uten	-1146
sam	-1147
▁sec	-1148
bs	-1149
▁fra	-1150
esen	-1151
for	-1152
▁davon	-1153
▁Gen	-1154
atsächlich	-1155
▁Geschichte	-1156
eld	-1157
entlich	-1158
zä	-1159
uter	-1160
ierte	-1161
▁person	-1162
▁entw	-1163
▁underst	-1164
ved	-1165
ichten	-1166
▁dort	-1167
▁turn	-1168
iten	-1169
▁wel	-1170
pf	-1171
▁Im	-1172
ational	-1173
ubl	-1174
onom	-1175
▁change	-1176
uß	-1177
aum	-1178
▁creat	-1179
zie	-1180
oment	-1181
▁Wissen	-1182
▁gleich	-1183
▁rec	-1184
▁Grund	-1185
pro	-1186
vor	-1187
▁Beis	-1188
▁Tag	-1189
▁Nun	-1190
hir	-1191
▁heute	-1192
angen	-1193
▁letz	-1194
▁Nach	-1195
▁thought	-1196
▁mean	-1197
▁Hier	-1198
▁feel	-1199
weise	-1200
▁play	-1201
ope	-1202
▁after	-1203
▁car	-1204
▁idea	-1205
▁genau	-1206
ielen	-1207
▁hatten	-1208
▁today	-1209
▁important	-1210
halb	-1211
rechen	-1212
▁Fre	-1213
▁cour	-1214
▁its	-1215
▁belie	-1216
▁Zu	-1217
▁Bild	-1218
ica	-1219
▁200	-1220
▁didn	-1221
äd	-1222
omp	-1223
ular	-1224
chten	-1225
erm	-1226
,000	-1227
..	-1228
erg	-1229
anden	-1230
ix	-1231
▁ihn	-1232
hör	-1233
▁help	-1234
▁könnte	-1235
atz	-1236
▁him	-1237
aw	-1238
▁Thank	-1239
ändern	-1240
▁jem	-1241
ane	-1242
olle	-1243
▁last	-1244
▁drei	-1245
▁started	-1246
▁All	-1247
▁einige	-1248
body	-1249
pen	-1250
ings	-1251
iving	-1252
oren	-1253
gar	-1254
▁exam	-1255
vent	-1256
stehen	-1257
▁Diese	-1258
▁med	-1259
imm	-1260
orn	-1261
mlich	-1262
reich	-1263
▁kl	-1264
atur	-1265
▁might	-1266
▁wollen	-1267
▁understand	-1268
stell	-1269
nde	-1270
▁Gl	-1271
▁Kl	-1272
▁darüber	-1273
ts	-1274
asser	-1275
▁story	-1276
▁paar	-1277
▁sond	-1278
▁better	-1279
▁before	-1280
bei	-1281
ave	-1282
▁still	-1283
ility	-1284
▁went	-1285
▁power	-1286
▁eff	-1287
gram	-1288
ogra	-1289
▁wurden	-1290
▁schw	-1291
▁Ab	-1292
ists	-1293
ina	-1294
▁gehen	-1295
▁meiner	-1296
▁give	-1297
▁seine	-1298
▁course	-1299
tent	-1300
▁nun	-1301
ital	-1302
ov	-1303
ather	-1304
utzen	-1305
erv	-1306
▁able	-1307
▁bess	-1308
▁another	-1309
▁brain	-1310
▁never	-1311
▁verw	-1312
▁Problem	-1313
ache	-1314
▁sondern	-1315
äh	-1316
utz	-1317
änder	-1318
▁found	-1319
amm	-1320
▁werde	-1321
▁cons	-1322
▁Des	-1323
amen	-1324
▁Ph	-1325
▁sl	-1326
anz	-1327
schein	-1328
arch	-1329
ährend	-1330
,"	-1331
...	-1332
▁Intern	-1333
▁Beispiel	-1334
▁Gehir	-1335
umber	-1336
ues	-1337
▁besch	-1338
▁Ü	-1339
▁tatsächlich	-1340
▁point	-1341
▁fin	-1342
nehmen	-1343
▁Aut	-1344
rat	-1345
▁unserer	-1346
iven	-1347
▁Geb	-1348
schieden	-1349
oy	-1350
fol	-1351
ander	-1352
▁Ihre	-1353
▁eigen	-1354
alth	-1355
▁ec	-1356
▁wahr	-1357
▁kid	-1358
▁Reg	-1359
br	-1360
enden	-1361
ata	-1362
▁leben	-1363
▁zie	-1364
ym	-1365
ürlich	-1366
▁weiß	-1367
▁6	-1368
▁New	-1369
ennen	-1370
uff	-1371
ward	-1372
allen	-1373
▁next	-1374
▁gab	-1375
▁neue	-1376
▁sort	-1377
ott	-1378
▁ago	-1379
▁exp	-1380
▁bede	-1381
▁mon	-1382
volution	-1383
ugen	-1384
gether	-1385
▁together	-1386
▁gel	-1387
▁dazu	-1388
▁water	-1389
bl	-1390
▁imag	-1391
▁vom	-1392
▁school	-1393
velop	-1394
land	-1395
ode	-1396
▁erst	-1397
▁How	-1398
kay	-1399
▁commun	-1400
▁mal	-1401
▁wäre	-1402
▁place	-1403
▁trans	-1404
ween	-1405
▁pat	-1406
▁Kon	-1407
▁glob	-1408
▁größ	-1409
ines	-1410
cted	-1411
▁few	-1412
stellen	-1413
▁came	-1414
cken	-1415
▁erzä	-1416
▁comple	-1417
ited	-1418
▁Lebens	-1419
rank	-1420
schen	-1421
▁De	-1422
eter	-1423
read	-1424
öglich	-1425
arm	-1426
▁entwick	-1427
▁Med	-1428
▁verl	-1429
▁gef	-1430
▁macht	-1431
▁finden	-1432
▁Million	-1433
achen	-1434
▁technology	-1435
▁gegen	-1436
▁sogar	-1437
▁number	-1438
ets	-1439
▁br	-1440
▁denke	-1441
▁Hand	-1442
▁denen	-1443
iness	-1444
gef	-1445
▁hät	-1446
gs	-1447
▁denken	-1448
öff	-1449
▁Wer	-1450
▁each	-1451
▁kommen	-1452
▁expl	-1453
▁plan	-1454
ized	-1455
ingen	-1456
▁organ	-1457
▁high	-1458
▁Ent	-1459
▁Mal	-1460
▁between	-1461
ident	-1462
▁wichtig	-1463
▁Technolog	-1464
▁used	-1465
▁develop	-1466
▁When	-1467
aufen	-1468
▁zwischen	-1469
oth	-1470
ters	-1471
ps	-1472
▁question	-1473
▁Gehirn	-1474
▁einmal	-1475
hrt	-1476
▁inst	-1477
co	-1478
▁Frauen	-1479
ative	-1480
▁art	-1481
afür	-1482
gest	-1483
zus	-1484
▁geb	-1485
els	-1486
cy	-1487
ierung	-1488
▁gerade	-1489
mit	-1490
atch	-1491
arbeit	-1492
▁gemacht	-1493
▁min	-1494
▁sen	-1495
ster	-1496
▁Internet	-1497
▁15	-1498
ific	-1499
▁cre	-1500
affen	-1501
▁ohne	-1502
▁weit	-1503
▁small	-1504
▁too	-1505
▁data	-1506
▁At	-1507
▁100	-1508
▁arbeit	-1509
▁funktion	-1510
ember	-1511
cause	-1512
▁Frage	-1513
ika	-1514
ule	-1515
▁geben	-1516
▁Wasser	-1517
▁30	-1518
▁Ihr	-1519
uge	-1520
▁vis	-1521
▁four	-1522
▁glaube	-1523
▁interess	-1524
▁kommt	-1525
▁Is	-1526
ways	-1527
▁par	-1528
uer	-1529
geben	-1530
▁50	-1531
▁women	-1532
▁Br	-1533
▁looking	-1534
▁Über	-1535
▁Ex	-1536
▁8	-1537
aterial	-1538
▁bere	-1539
▁ihren	-1540
▁run	-1541
▁näch	-1542
ced	-1543
▁grow	-1544
kommen	-1545
▁met	-1546
alen	-1547
ationen	-1548
▁example	-1549
▁old	-1550
schl	-1551
▁el	-1552
▁interest	-1553
▁zeigen	-1554
gew	-1555
▁ans	-1556
▁done	-1557
▁letzten	-1558
▁9	-1559
▁love	-1560
pe	-1561
▁cell	-1562
tschaft	-1563
▁wr	-1564
▁7	-1565
▁live	-1566
▁partic	-1567
▁Because	-1568
dem	-1569
anted	-1570
▁form	-1571
ably	-1572
▁erste	-1573
ium	-1574
▁dafür	-1575
▁schne	-1576
▁Da	-1577
▁War	-1578
▁bo	-1579
▁doesn	-1580
unkt	-1581
▁inv	-1582
▁light	-1583
▁nichts	-1584
zeit	-1585
immt	-1586
▁set	-1587
ält	-1588
▁Eine	-1589
▁würden	-1590
iolog	-1591
▁care	-1592
▁cent	-1593
gie	-1594
ures	-1595
▁irgend	-1596
▁ersten	-1597
tz	-1598
ffen	-1599
▁jeder	-1600
aub	-1601
ilm	-1602
▁verschieden	-1603
▁Schl	-1604
▁passiert	-1605
▁sieht	-1606
▁Univers	-1607
ös	-1608
ement	-1609
▁konnte	-1610
▁sk	-1611
▁eng	-1612
▁Q	-1613
▁second	-1614
ikan	-1615
ruck	-1616
▁As	-1617
▁sit	-1618
under	-1619
yn	-1620
ross	-1621
▁[	-1622
▁famil	-1623
▁wanted	-1624
led	-1625
▁polit	-1626
▁gener	-1627
▁verstehen	-1628
▁meisten	-1629
ness	-1630
▁während	-1631
▁reg	-1632
▁mag	-1633
▁Pr	-1634
▁lar	-1635
ied	-1636
▁Daten	-1637
here	-1638
▁poss	-1639
▁warum	-1640
cept	-1641
▁million	-1642
iele	-1643
▁Millionen	-1644
▁whole	-1645
unde	-1646
rop	-1647
▁daran	-1648
▁My	-1649
ands	-1650
▁mensch	-1651
ernen	-1652
▁mind	-1653
rupp	-1654
▁besser	-1655
▁dra	-1656
▁phys	-1657
▁Fe	-1658
achte	-1659
▁econom	-1660
▁working	-1661
▁str	-1662
▁reas	-1663
selves	-1664
▁Prozent	-1665
ider	-1666
▁chang	-1667
▁tre	-1668
▁less	-1669
ogen	-1670
▁Comp	-1671
▁trying	-1672
▁sub	-1673
fin	-1674
oney	-1675
ma	-1676
anke	-1677
ideo	-1678
▁anim	-1679
▁bus	-1680
aking	-1681
▁resp	-1682
▁lassen	-1683
sy	-1684
esehen	-1685
▁etwa	-1686
ift	-1687
weg	-1688
▁read	-1689
▁begin	-1690
▁always	-1691
▁health	-1692
▁away	-1693
▁sagt	-1694
▁norm	-1695
air	-1696
▁schl	-1697
tre	-1698
jekt	-1699
essen	-1700
▁dire	-1701
▁fast	-1702
illi	-1703
▁children	-1704
ude	-1705
gehen	-1706
wir	-1707
ischer	-1708
▁sollten	-1709
cher	-1710
▁Idee	-1711
zeug	-1712
▁Mar	-1713
▁prob	-1714
amp	-1715
▁sollte	-1716
▁believe	-1717
akt	-1718
▁acc	-1719
▁book	-1720
alls	-1721
ural	-1722
atter	-1723
▁country	-1724
amer	-1725
agt	-1726
äng	-1727
ivid	-1728
hip	-1729
dern	-1730
▁Person	-1731
▁Mon	-1732
▁natürlich	-1733
ilt	-1734
hlt	-1735
▁könnten	-1736
▁Geld	-1737
▁cor	-1738
ries	-1739
▁stand	-1740
row	-1741
▁ihrer	-1742
licher	-1743
app	-1744
ußer	-1745
ett	-1746
isen	-1747
▁meinen	-1748
▁schnell	-1749
▁US	-1750
▁dre	-1751
ollar	-1752
kte	-1753
▁Weg	-1754
lung	-1755
▁Raum	-1756
▁supp	-1757
▁using	-1758
str	-1759
▁frien	-1760
▁Ä	-1761
▁große	-1762
richt	-1763
▁aut	-1764
▁hard	-1765
ister	-1766
kun	-1767
err	-1768
▁meinem	-1769
tell	-1770
▁...	-1771
▁pict	-1772
▁ja	-1773
▁Am	-1774
▁space	-1775
schied	-1776
asch	-1777
vern	-1778
vers	-1779
▁dabei	-1780
▁wollte	-1781
hin	-1782
▁project	-1783
▁ganze	-1784
▁fre	-1785
arth	-1786
▁create	-1787
ci	-1788
adt	-1789
▁kids	-1790
▁abs	-1791
▁sicher	-1792
▁Verb	-1793
örper	-1794
▁sprechen	-1795
öglichkeit	-1796
raft	-1797
▁jemand	-1798
aces	-1799
▁means	-1800
uft	-1801
▁mod	-1802
ief	-1803
.000	-1804
▁cou	-1805
▁thinking	-1806
▁ziemlich	-1807
los	-1808
net	-1809
aben	-1810
▁tru	-1811
ric	-1812
▁fut	-1813
▁open	-1814
ierten	-1815
utet	-1816
▁five	-1817
▁sing	-1818
▁bekommen	-1819
▁mark	-1820
legen	-1821
▁under	-1822
gh	-1823
urs	-1824
▁publ	-1825
▁took	-1826
▁information	-1827
▁Wissenschaft	-1828
▁such	-1829
▁Schw	-1830
ession	-1831
▁darauf	-1832
▁home	-1833
▁Min	-1834
▁ging	-1835
▁eig	-1836
▁become	-1837
ories	-1838
▁energ	-1839
ünd	-1840
eres	-1841
▁hör	-1842
▁spec	-1843
▁'	-1844
▁teach	-1845
▁everything	-1846
▁♪	-1847
▁maybe	-1848
▁compan	-1849
ald	-1850
nov	-1851
▁kam	-1852
▁money	-1853
▁arbeiten	-1854
gesch	-1855
▁One	-1856
kunft	-1857
utter	-1858
▁Ener	-1859
ständ	-1860
▁Dank	-1861
scheinlich	-1862
reen	-1863
ringen	-1864
▁process	-1865
▁food	-1866
urz	-1867
▁doll	-1868
▁nehmen	-1869
sych	-1870
▁Gem	-1871
ird	-1872
man	-1873
▁cle	-1874
▁future	-1875
▁Ger	-1876
annt	-1877
▁She	-1878
sehen	-1879
".	-1880
ruct	-1881
▁Ende	-1882
▁left	-1883
dr	-1884
up	-1885
▁Ö	-1886
▁moment	-1887
▁nam	-1888
reiben	-1889
▁ass	-1890
▁China	-1891
▁hist	-1892
arly	-1893
▁coll	-1894
▁Entw	-1895
▁walk	-1896
ax	-1897
▁fas	-1898
▁doch	-1899
▁Mann	-1900
ktur	-1901
▁weniger	-1902
äter	-1903
line	-1904
ouse	-1905
icher	-1906
▁York	-1907
ohn	-1908
äs	-1909
▁Men	-1910
▁head	-1911
fühl	-1912
▁Inter	-1913
▁kleinen	-1914
vir	-1915
ilen	-1916
▁Design	-1917
abor	-1918
▁enough	-1919
rag	-1920
oot	-1921
▁Dann	-1922
▁These	-1923
▁Kom	-1924
▁getting	-1925
▁quite	-1926
▁social	-1927
▁Chr	-1928
ograph	-1929
▁Mein	-1930
duc	-1931
ennt	-1932
onder	-1933
▁comes	-1934
▁sense	-1935
▁energy	-1936
esell	-1937
▁global	-1938
▁says	-1939
▁interesting	-1940
orgen	-1941
cer	-1942
▁Pol	-1943
▁unseren	-1944
▁vier	-1945
▁Wor	-1946
esten	-1947
▁stop	-1948
▁govern	-1949
iere	-1950
▁prof	-1951
▁bre	-1952
▁Famil	-1953
aupt	-1954
usst	-1955
ustr	-1956
▁Technologie	-1957
▁bedeutet	-1958
ole	-1959
▁Denn	-1960
ließ	-1961
▁half	-1962
äus	-1963
▁El	-1964
▁Vers	-1965
▁bewe	-1966
nah	-1967
ments	-1968
▁Kre	-1969
ron	-1970
ulation	-1971
▁pop	-1972
▁typ	-1973
▁sign	-1974
▁probably	-1975
▁erw	-1976
▁contro	-1977
▁Information	-1978
cke	-1979
fte	-1980
ret	-1981
iet	-1982
▁Stud	-1983
▁beste	-1984
▁happened	-1985
▁times	-1986
cle	-1987
▁conne	-1988
ertain	-1989
▁Dollar	-1990
",	-1991
ican	-1992
▁making	-1993
▁welche	-1994
äft	-1995
▁ihm	-1996
ices	-1997
▁cr	-1998
hol	-1999
▁building	-2000
▁grou	-2001
▁ser	-2002
▁bringen	-2003
halt	-2004
▁Möglichkeit	-2005
▁heiß	-2006
▁Energie	-2007
▁talking	-2008
aps	-2009
▁seit	-2010
▁Eur	-2011
▁Sache	-2012
▁month	-2013
▁body	-2014
▁brauchen	-2015
inen	-2016
▁stuff	-2017
▁cur	-2018
▁möglich	-2019
ried	-2020
chite	-2021
▁Here	-2022
▁lives	-2023
▁dachte	-2024
hand	-2025
very	-2026
▁room	-2027
▁beaut	-2028
▁dist	-2029
▁Stra	-2030
▁without	-2031
eder	-2032
▁kleine	-2033
▁gesehen	-2034
achsen	-2035
▁ber	-2036
fort	-2037
▁Gro	-2038
▁Okay	-2039
iges	-2040
ismus	-2041
▁elect	-2042
▁eigentlich	-2043
▁Sh	-2044
▁far	-2045
▁makes	-2046
gle	-2047
rad	-2048
▁ungl	-2049
▁Proble	-2050
hle	-2051
ever	-2052
▁Män	-2053
esearch	-2054
ng	-2055
▁pie	-2056
▁18	-2057
▁seem	-2058
▁zeigt	-2059
▁großen	-2060
▁Ob	-2061
▁Pat	-2062
viron	-2063
etzen	-2064
ately	-2065
iment	-2066
▁countries	-2067
opf	-2068
▁voll	-2069
▁Zukunft	-2070
▁business	-2071
mp	-2072
▁keep	-2073
esent	-2074
▁„	-2075
aun	-2076
ying	-2077
▁Weise	-2078
▁else	-2079
undert	-2080
▁12	-2081
▁pra	-2082
arten	-2083
isk	-2084
▁pos	-2085
ument	-2086
▁fol	-2087
▁told	-2088
▁job	-2089
▁bad	-2090
▁pret	-2091
▁jeden	-2092
ether	-2093
▁side	-2094
▁Spiel	-2095
aden	-2096
▁Stadt	-2097
▁pretty	-2098
▁gar	-2099
▁Seite	-2100
▁coming	-2101
▁wonder	-2102
itive	-2103
▁Bü	-2104
▁wenig	-2105
▁reason	-2106
▁week	-2107
▁dollars	-2108
▁science	-2109
▁Gew	-2110
▁Computer	-2111
▁ret	-2112
▁simple	-2113
▁top	-2114
▁anything	-2115
▁Den	-2116
▁opp	-2117
▁across	-2118
▁schle	-2119
▁sound	-2120
▁40	-2121
▁allow	-2122
zial	-2123
▁Ged	-2124
▁Let	-2125
▁soc	-2126
▁ganzen	-2127
schaften	-2128
▁environ	-2129
fer	-2130
▁Africa	-2131
▁Frau	-2132
quen	-2133
▁int	-2134
uring	-2135
ckt	-2136
emat	-2137
▁men	-2138
▁Ele	-2139
eth	-2140
rib	-2141
▁No	-2142
▁außer	-2143
nf	-2144
▁phot	-2145
ker	-2146
▁On	-2147
ches	-2148
rom	-2149
ende	-2150
▁keinen	-2151
ernt	-2152
▁living	-2153
mun	-2154
NA	-2155
▁Engl	-2156
▁Entwick	-2157
irl	-2158
ality	-2159
ulture	-2160
▁educ	-2161
leben	-2162
otion	-2163
▁hoch	-2164
▁Körper	-2165
vie	-2166
ince	-2167
▁eas	-2168
ator	-2169
▁cap	-2170
undheit	-2171
Ich	-2172
erne	-2173
▁Rob	-2174
gal	-2175
▁val	-2176
▁gest	-2177
rieben	-2178
▁ey	-2179
ders	-2180
▁hope	-2181
▁seen	-2182
▁ways	-2183
▁Grupp	-2184
▁je	-2185
▁Menge	-2186
▁experience	-2187
ots	-2188
▁OK	-2189
utes	-2190
▁Woch	-2191
▁rest	-2192
▁ä	-2193
ged	-2194
▁scient	-2195
▁air	-2196
▁Buch	-2197
▁gesagt	-2198
ape	-2199
▁versuchen	-2200
haf	-2201
▁rob	-2202
ision	-2203
sicht	-2204
▁Warum	-2205
▁Natur	-2206
▁absol	-2207
most	-2208
▁later	-2209
▁später	-2210
▁Ort	-2211
▁hätte	-2212
ash	-2213
erence	-2214
▁glauben	-2215
▁saw	-2216
▁Fall	-2217
▁program	-2218
▁fig	-2219
stellung	-2220
▁research	-2221
where	-2222
▁unglaub	-2223
▁col	-2224
athemat	-2225
ily	-2226
work	-2227
scheid	-2228
▁lernen	-2229
▁beim	-2230
▁asked	-2231
▁vielen	-2232
▁goes	-2233
▁hour	-2234
▁indem	-2235
▁System	-2236
mittel	-2237
▁niem	-2238
iverse	-2239
▁seiner	-2240
▁happens	-2241
stoff	-2242
▁Haus	-2243
▁Augen	-2244
▁offen	-2245
ähigkeit	-2246
▁particular	-2247
▁Do	-2248
iker	-2249
apt	-2250
▁char	-2251
öl	-2252
iety	-2253
▁move	-2254
▁computer	-2255
▁Antw	-2256
schw	-2257
▁pers	-2258
achten	-2259
ote	-2260
▁fest	-2261
▁case	-2262
▁eigenen	-2263
▁Groß	-2264
▁having	-2265
▁effect	-2266
einander	-2267
▁answer	-2268
▁Ber	-2269
▁fal	-2270
▁oft	-2271
▁fünf	-2272
▁Licht	-2273
ization	-2274
akes	-2275
ament	-2276
onnen	-2277
ipp	-2278
▁vir	-2279
▁planet	-2280
▁individ	-2281
▁problems	-2282
ants	-2283
folg	-2284
▁family	-2285
▁Vielen	-2286
▁stellen	-2287
▁öff	-2288
racht	-2289
itz	-2290
▁nä	-2291
▁Spra	-2292
▁picture	-2293
tellt	-2294
ume	-2295
ared	-2296
▁Dar	-2297
illiar	-2298
▁Danke	-2299
▁thous	-2300
▁complete	-2301
▁funktioniert	-2302
▁schaffen	-2303
▁music	-2304
uck	-2305
arte	-2306
▁stre	-2307
▁konnten	-2308
▁Lie	-2309
ritt	-2310
▁Why	-2311
▁city	-2312
▁gehör	-2313
ilder	-2314
▁days	-2315
▁langu	-2316
nung	-2317
oman	-2318
▁bro	-2319
▁heißt	-2320
▁six	-2321
hrer	-2322
▁Earth	-2323
▁unt	-2324
unter	-2325
▁besond	-2326
▁25	-2327
ior	-2328
▁mil	-2329
▁land	-2330
zeich	-2331
cl	-2332
reichen	-2333
▁environment	-2334
rü	-2335
▁jedes	-2336
iol	-2337
▁Sel	-2338
▁equ	-2339
stand	-2340
ändert	-2341
▁single	-2342
▁loc	-2343
▁level	-2344
esellschaft	-2345
▁Zwe	-2346
▁komple	-2347
asse	-2348
▁ev	-2349
▁Erde	-2350
▁Probleme	-2351
unst	-2352
▁Moment	-2353
▁inside	-2354
▁irgendw	-2355
▁nutzen	-2356
tem	-2357
▁began	-2358
▁Produ	-2359
▁Organ	-2360
▁remember	-2361
ünst	-2362
▁ble	-2363
▁helfen	-2364
▁Gesundheit	-2365
▁gute	-2366
▁Jetzt	-2367
▁young	-2368
let	-2369
▁yet	-2370
erein	-2371
▁bew	-2372
▁dig	-2373
▁Milliar	-2374
iti	-2375
▁public	-2376
ktiv	-2377
unk	-2378
▁extre	-2379
▁invest	-2380
ready	-2381
▁Wahr	-2382
fahren	-2383
▁while	-2384
isches	-2385
zuf	-2386
▁neuen	-2387
▁prote	-2388
▁watch	-2389
▁biolog	-2390
▁possible	-2391
▁Mutter	-2392
ury	-2393
▁amaz	-2394
bo	-2395
zahl	-2396
▁pain	-2397
ruktur	-2398
▁almost	-2399
ided	-2400
▁normal	-2401
▁USA	-2402
uche	-2403
▁once	-2404
▁che	-2405
▁hear	-2406
▁ideas	-2407
▁basically	-2408
abe	-2409
ield	-2410
▁disco	-2411
▁Kont	-2412
▁fund	-2413
▁certain	-2414
▁both	-2415
dition	-2416
umen	-2417
heiten	-2418
▁bed	-2419
▁aller	-2420
▁suc	-2421
▁dise	-2422
▁saying	-2423
▁net	-2424
▁sure	-2425
▁—	-2426
ahlen	-2427
▁Kunst	-2428
▁Form	-2429
gefähr	-2430
▁self	-2431
▁wrong	-2432
chs	-2433
▁verk	-2434
▁betra	-2435
▁wahrscheinlich	-2436
▁whether	-2437
idd	-2438
rum	-2439
oice	-2440
▁contin	-2441
▁allen	-2442
▁treat	-2443
▁Bo	-2444
▁guy	-2445
so	-2446
auer	-2447
▁sah	-2448
▁DNA	-2449
denken	-2450
▁billion	-2451
▁insp	-2452
▁looks	-2453
▁nothing	-2454
imate	-2455
osten	-2456
▁anders	-2457
ush	-2458
▁Not	-2459
▁matter	-2460
▁Wo	-2461
ption	-2462
▁history	-2463
▁tot	-2464
glichen	-2465
▁incred	-2466
welt	-2467
▁already	-2468
▁unserem	-2469
▁frü	-2470
ages	-2471
iful	-2472
uation	-2473
lichkeit	-2474
ogn	-2475
ived	-2476
▁exist	-2477
▁schön	-2478
▁someone	-2479
▁community	-2480
▁control	-2481
ases	-2482
▁Tod	-2483
▁often	-2484
▁product	-2485
▁Uns	-2486
aneten	-2487
▁exact	-2488
▁heart	-2489
öt	-2490
▁Bed	-2491
chmal	-2492
▁Schul	-2493
inter	-2494
▁within	-2495
inz	-2496
icro	-2497
▁genug	-2498
▁erzählen	-2499
▁nächsten	-2500
aur	-2501
▁looked	-2502
gem	-2503
side	-2504
▁line	-2505
▁lange	-2506
stead	-2507
▁Gegen	-2508
▁erkl	-2509
ransp	-2510
▁true	-2511
▁herum	-2512
▁weg	-2513
▁frag	-2514
▁kennen	-2515
▁amazing	-2516
▁dev	-2517
▁challen	-2518
ären	-2519
gleich	-2520
▁seinen	-2521
osed	-2522
▁universe	-2523
▁cost	-2524
▁mass	-2525
oral	-2526
▁extra	-2527
ösen	-2528
▁cells	-2529
▁To	-2530
▁erf	-2531
▁iss	-2532
▁begann	-2533
que	-2534
▁kill	-2535
liches	-2536
▁ur	-2537
ultur	-2538
▁works	-2539
▁gemein	-2540
aby	-2541
▁Fot	-2542
▁term	-2543
▁words	-2544
▁Forsch	-2545
▁test	-2546
▁erinn	-2547
▁bauen	-2548
▁myself	-2549
▁CA	-2550
▁di	-2551
ivity	-2552
▁cond	-2553
▁Ideen	-2554
▁Musik	-2555
▁mar	-2556
forder	-2557
▁rep	-2558
▁heard	-2559
▁recht	-2560
ones	-2561
zieh	-2562
▁ref	-2563
▁ill	-2564
▁girl	-2565
▁kne	-2566
gangen	-2567
▁Ja	-2568
▁psych	-2569
▁Selbst	-2570
▁Planeten	-2571
innen	-2572
▁class	-2573
ollow	-2574
▁built	-2575
▁richtig	-2576
▁wus	-2577
▁jede	-2578
▁order	-2579
▁imagine	-2580
less	-2581
ination	-2582
▁result	-2583
ton	-2584
chan	-2585
kennen	-2586
aren	-2587
▁Bere	-2588
▁figure	-2589
▁beautiful	-2590
▁ü	-2591
▁Projekt	-2592
ums	-2593
äre	-2594
▁cancer	-2595
▁Ma	-2596
fect	-2597
▁Sta	-2598
▁United	-2599
▁aff	-2600
uchte	-2601
ians	-2602
iddle	-2603
▁bevor	-2604
▁train	-2605
▁ungefähr	-2606
▁Nicht	-2607
fä	-2608
▁sex	-2609
▁rad	-2610
▁wicht	-2611
vious	-2612
▁friends	-2613
▁Geschichten	-2614
nisse	-2615
▁night	-2616
▁age	-2617
▁couple	-2618
Wh	-2619
mut	-2620
aper	-2621
▁Schule	-2622
▁hund	-2623
▁behav	-2624
▁liegt	-2625
▁language	-2626
▁Fähigkeit	-2627
The	-2628
▁exc	-2629
▁eing	-2630
▁nah	-2631
▁full	-2632
▁verändern	-2633
▁Dem	-2634
▁stories	-2635
hm	-2636
ired	-2637
iting	-2638
▁ihrem	-2639
▁ta	-2640
ße	-2641
▁hö	-2642
▁video	-2643
ücken	-2644
▁months	-2645
▁mother	-2646
▁erl	-2647
▁face	-2648
▁entire	-2649
mö	-2650
ftw	-2651
▁Du	-2652
▁verd	-2653
eah	-2654
voll	-2655
▁Erfahr	-2656
▁bisschen	-2657
▁Informationen	-2658
ivil	-2659
▁kurz	-2660
▁Für	-2661
▁ant	-2662
anken	-2663
fra	-2664
äche	-2665
▁pay	-2666
▁sei	-2667
▁government	-2668
▁link	-2669
izin	-2670
nitt	-2671
ission	-2672
ädchen	-2673
▁Leuten	-2674
▁material	-2675
outh	-2676
▁Exper	-2677
▁überall	-2678
▁group	-2679
antw	-2680
stit	-2681
▁must	-2682
▁front	-2683
▁incre	-2684
cc	-2685
▁sw	-2686
utzt	-2687
▁neur	-2688
llig	-2689
▁ident	-2690
▁Wirtschaft	-2691
une	-2692
▁Ang	-2693
▁Krie	-2694
▁hoff	-2695
▁Arten	-2696
▁innov	-2697
▁follow	-2698
▁species	-2699
▁Unternehmen	-2700
▁Pe	-2701
ieht	-2702
▁Gra	-2703
heim	-2704
▁Par	-2705
▁Krank	-2706
▁Punkt	-2707
▁defin	-2708
▁Fragen	-2709
▁stehen	-2710
▁60	-2711
▁isn	-2712
ienten	-2713
▁piece	-2714
▁schwer	-2715
▁seinem	-2716
▁alt	-2717
ering	-2718
▁inner	-2719
▁los	-2720
▁education	-2721
▁nature	-2722
ilfe	-2723
▁oce	-2724
immen	-2725
▁model	-2726
▁market	-2727
zess	-2728
▁until	-2729
▁hinter	-2730
satz	-2731
▁places	-2732
rug	-2733
▁Bet	-2734
▁dich	-2735
▁Antwort	-2736
▁Männer	-2737
wend	-2738
anzen	-2739
▁sagten	-2740
▁gehört	-2741
kten	-2742
imens	-2743
▁Kopf	-2744
▁darum	-2745
omet	-2746
raum	-2747
▁mess	-2748
▁terr	-2749
▁Can	-2750
▁schwier	-2751
▁Film	-2752
ielt	-2753
▁wasn	-2754
▁Milliarden	-2755
▁klar	-2756
▁everybody	-2757
ateg	-2758
▁chem	-2759
▁quick	-2760
▁erh	-2761
asst	-2762
gende	-2763
▁Di	-2764
▁199	-2765
inner	-2766
▁ment	-2767
▁tool	-2768
ußen	-2769
▁dest	-2770
omes	-2771
plic	-2772
▁Gebä	-2773
▁Glück	-2774
lt	-2775
reif	-2776
▁completely	-2777
ctor	-2778
rieb	-2779
▁det	-2780
▁writ	-2781
▁nennen	-2782
▁anf	-2783
▁eben	-2784
▁study	-2785
▁Goo	-2786
▁musste	-2787
▁object	-2788
▁Mädchen	-2789
▁decided	-2790
ames	-2791
▁Vie	-2792
ested	-2793
▁large	-2794
ides	-2795
ienen	-2796
▁Vort	-2797
▁reden	-2798
▁Lös	-2799
▁taking	-2800
▁animals	-2801
▁entwickelt	-2802
▁prov	-2803
▁Jahrh	-2804
beite	-2805
▁Meine	-2806
▁großart	-2807
▁Qu	-2808
▁intern	-2809
ortun	-2810
▁spend	-2811
▁became	-2812
alten	-2813
▁engine	-2814
ging	-2815
▁Every	-2816
▁students	-2817
▁exactly	-2818
▁Bes	-2819
▁anderes	-2820
▁80	-2821
▁India	-2822
▁bereits	-2823
osph	-2824
▁adv	-2825
istan	-2826
▁Dieses	-2827
▁schein	-2828
ibly	-2829
▁share	-2830
▁Afrika	-2831
ene	-2832
face	-2833
▁law	-2834
▁view	-2835
▁States	-2836
▁itself	-2837
wohl	-2838
▁discover	-2839
inal	-2840
onne	-2841
acter	-2842
▁repr	-2843
ively	-2844
▁wunder	-2845
▁sow	-2846
▁Mode	-2847
▁Zusammen	-2848
bra	-2849
▁Ha	-2850
▁spielen	-2851
erk	-2852
bare	-2853
▁past	-2854
▁word	-2855
▁entde	-2856
▁though	-2857
▁son	-2858
ftware	-2859
bed	-2860
werk	-2861
▁Bei	-2862
▁Netz	-2863
▁Entscheid	-2864
zept	-2865
▁euch	-2866
▁Minuten	-2867
▁complex	-2868
▁learned	-2869
▁Gesellschaft	-2870
▁Gener	-2871
▁success	-2872
▁happening	-2873
ütz	-2874
▁kinds	-2875
▁erkennen	-2876
▁Verhalten	-2877
iber	-2878
▁Spe	-2879
▁priv	-2880
ability	-2881
▁ourselves	-2882
par	-2883
▁America	-2884
▁tro	-2885
igten	-2886
ource	-2887
▁cool	-2888
▁society	-2889
▁mem	-2890
igung	-2891
▁knew	-2892
▁sens	-2893
▁besonders	-2894
▁minutes	-2895
▁woman	-2896
▁halten	-2897
▁deal	-2898
▁since	-2899
▁erreichen	-2900
▁questions	-2901
▁Gott	-2902
indung	-2903
inning	-2904
▁fragen	-2905
▁struct	-2906
▁game	-2907
▁steht	-2908
▁techn	-2909
ral	-2910
ature	-2911
▁conf	-2912
oter	-2913
reis	-2914
▁Kön	-2915
▁against	-2916
▁company	-2917
▁themselves	-2918
ising	-2919
▁house	-2920
▁Familie	-2921
med	-2922
▁somebody	-2923
▁relations	-2924
▁Sc	-2925
icken	-2926
▁namens	-2927
äuf	-2928
▁av	-2929
▁oben	-2930
fang	-2931
ocus	-2932
immer	-2933
▁Indien	-2934
▁benutzen	-2935
▁gets	-2936
ager	-2937
▁dir	-2938
▁won	-2939
▁John	-2940
▁wind	-2941
▁free	-2942
richten	-2943
sh	-2944
▁Ur	-2945
uden	-2946
▁God	-2947
▁sym	-2948
▁stat	-2949
▁verschiedene	-2950
ichen	-2951
ahn	-2952
gung	-2953
haps	-2954
▁del	-2955
▁Macht	-2956
▁along	-2957
▁Bilder	-2958
endet	-2959
▁colle	-2960
▁turns	-2961
▁Google	-2962
▁meet	-2963
▁hätten	-2964
▁rather	-2965
bild	-2966
unge	-2967
▁gerne	-2968
▁hören	-2969
iste	-2970
▁ones	-2971
uchten	-2972
grund	-2973
ommt	-2974
▁Fol	-2975
press	-2976
▁Flug	-2977
▁aw	-2978
▁created	-2979
▁tradition	-2980
▁fly	-2981
▁red	-2982
▁Them	-2983
▁huge	-2984
▁darin	-2985
▁na	-2986
▁Ergeb	-2987
cing	-2988
stra	-2989
▁cir	-2990
▁Oder	-2991
reit	-2992
änger	-2993
▁hours	-2994
▁opportun	-2995
zug	-2996
▁ho	-2997
roll	-2998
▁var	-2999
▁lead	-3000
▁machte	-3001
▁Ke	-3002
▁cra	-3003
icult	-3004
▁name	-3005
▁aud	-3006
met	-3007
ächt	-3008
▁mov	-3009
▁Herz	-3010
▁Wort	-3011
ef	-3012
liegen	-3013
▁statt	-3014
▁extrem	-3015
iken	-3016
▁att	-3017
▁opt	-3018
andel	-3019
▁pred	-3020
▁risk	-3021
▁focus	-3022
▁Kor	-3023
▁Auto	-3024
▁arbeite	-3025
▁Fü	-3026
▁Bro	-3027
▁ähn	-3028
▁bott	-3029
▁deep	-3030
▁oper	-3031
itting	-3032
▁Beweg	-3033
ished	-3034
▁Gruppe	-3035
ples	-3036
wards	-3037
▁Doch	-3038
▁shows	-3039
▁Ro	-3040
gramm	-3041
50	-3042
ams	-3043
▁Char	-3044
▁Then	-3045
▁arg	-3046
▁mot	-3047
▁Tr	-3048
ress	-3049
weit	-3050
annte	-3051
▁least	-3052
▁braucht	-3053
▁disease	-3054
bes	-3055
ekte	-3056
▁add	-3057
haupt	-3058
▁meas	-3059
lo	-3060
öhn	-3061
erer	-3062
▁jedem	-3063
▁wohl	-3064
▁Em	-3065
▁welt	-3066
▁others	-3067
ump	-3068
▁Sü	-3069
▁Durch	-3070
ließlich	-3071
▁Eltern	-3072
▁Sprache	-3073
▁news	-3074
tellen	-3075
▁Gefühl	-3076
▁Angst	-3077
▁sometimes	-3078
▁eins	-3079
▁lea	-3080
istic	-3081
ützen	-3082
▁liter	-3083
▁couldn	-3084
▁American	-3085
▁ries	-3086
▁difficult	-3087
▁Kn	-3088
part	-3089
orden	-3090
▁guys	-3091
▁sechs	-3092
▁worked	-3093
sent	-3094
▁Far	-3095
▁anal	-3096
▁Ad	-3097
▁Cl	-3098
▁early	-3099
▁state	-3100
▁Kultur	-3101
▁Patienten	-3102
▁Some	-3103
▁Gemein	-3104
▁thousands	-3105
▁Vielleicht	-3106
sk	-3107
▁11	-3108
▁lau	-3109
▁non	-3110
▁film	-3111
▁Richt	-3112
▁happy	-3113
ey	-3114
view	-3115
▁entf	-3116
▁invol	-3117
osp	-3118
esse	-3119
fall	-3120
ients	-3121
▁glück	-3122
▁speak	-3123
illions	-3124
▁behind	-3125
▁listen	-3126
onen	-3127
▁Lin	-3128
▁neu	-3129
▁Jahrhundert	-3130
ined	-3131
▁Dav	-3132
▁Weil	-3133
▁gesam	-3134
▁micro	-3135
gestellt	-3136
hler	-3137
ässt	-3138
▁Fir	-3139
führt	-3140
▁systems	-3141
ai	-3142
▁gave	-3143
▁redu	-3144
icherheit	-3145
imp	-3146
▁201	-3147
ither	-3148
▁Freund	-3149
▁everyone	-3150
aster	-3151
inger	-3152
▁führen	-3153
▁explain	-3154
▁instead	-3155
pend	-3156
▁entwickeln	-3157
ison	-3158
▁ange	-3159
▁poor	-3160
tend	-3161
▁appro	-3162
▁bewegen	-3163
ney	-3164
punkt	-3165
zeugen	-3166
ask	-3167
▁Ko	-3168
ätz	-3169
indet	-3170
▁behavior	-3171
cul	-3172
▁lik	-3173
anten	-3174
▁natural	-3175
▁vorstellen	-3176
▁sug	-3177
▁third	-3178
▁network	-3179
▁erhalten	-3180
▁Städ	-3181
ling	-3182
ning	-3183
▁amount	-3184
▁einigen	-3185
▁arm	-3186
▁field	-3187
▁richt	-3188
▁Veränder	-3189
▁impro	-3190
▁intell	-3191
▁lots	-3192
▁Stunden	-3193
▁learning	-3194
▁relationship	-3195
ante	-3196
▁Vater	-3197
▁einge	-3198
▁relig	-3199
▁online	-3200
▁collect	-3201
tens	-3202
▁erk	-3203
akter	-3204
▁Luft	-3205
schnitt	-3206
▁beiden	-3207
▁manchmal	-3208
▁verschiedenen	-3209
utions	-3210
▁Car	-3211
amera	-3212
▁mult	-3213
antast	-3214
▁Chris	-3215
▁recent	-3216
▁wa	-3217
ikro	-3218
▁Har	-3219
itions	-3220
▁death	-3221
uz	-3222
▁16	-3223
▁HI	-3224
▁Oh	-3225
igte	-3226
äten	-3227
alität	-3228
▁Krebs	-3229
▁interact	-3230
▁irgendwie	-3231
iben	-3232
▁Techn	-3233
▁disc	-3234
▁%	-3235
ölker	-3236
hnt	-3237
hlte	-3238
uren	-3239
ublik	-3240
▁genet	-3241
▁surpr	-3242
▁menschlichen	-3243
St	-3244
rew	-3245
▁oil	-3246
of	-3247
▁bemer	-3248
▁ändern	-3249
▁connect	-3250
apan	-3251
ionen	-3252
▁short	-3253
lex	-3254
▁Roboter	-3255
▁machine	-3256
▁Fran	-3257
▁takes	-3258
▁stell	-3259
▁super	-3260
▁Bezieh	-3261
▁outside	-3262
▁black	-3263
▁seven	-3264
▁taken	-3265
▁moving	-3266
▁difference	-3267
sw	-3268
▁inte	-3269
▁bestimm	-3270
okrat	-3271
▁auss	-3272
▁wollten	-3273
▁personal	-3274
!"	-3275
ence	-3276
haus	-3277
▁HIV	-3278
▁Video	-3279
▁changed	-3280
▁cut	-3281
▁incl	-3282
▁pick	-3283
▁Masch	-3284
▁close	-3285
ony	-3286
ully	-3287
▁Sinn	-3288
▁common	-3289
▁einzel	-3290
▁record	-3291
▁powerful	-3292
uelle	-3293
▁vorher	-3294
oph	-3295
häng	-3296
▁leg	-3297
▁jour	-3298
▁14	-3299
▁einzige	-3300
▁Regierung	-3301
pect	-3302
▁nämlich	-3303
rif	-3304
ased	-3305
▁green	-3306
▁besten	-3307
tt	-3308
min	-3309
▁pattern	-3310
▁Hause	-3311
tention	-3312
▁Kindern	-3313
ana	-3314
orth	-3315
▁Europe	-3316
▁verwenden	-3317
ards	-3318
▁Werk	-3319
▁archite	-3320
▁century	-3321
▁Material	-3322
▁verändert	-3323
▁unterschied	-3324
▁Pa	-3325
alax	-3326
gang	-3327
ände	-3328
ester	-3329
▁area	-3330
▁Heraus	-3331
▁emotion	-3332
bere	-3333
aktion	-3334
▁ocean	-3335
▁Sachen	-3336
▁transp	-3337
▁Fahr	-3338
opp	-3339
▁Hö	-3340
auben	-3341
▁eher	-3342
▁experiment	-3343
▁Mo	-3344
zustellen	-3345
uh	-3346
▁cann	-3347
▁indust	-3348
▁middle	-3349
Oh	-3350
oms	-3351
▁lim	-3352
▁fand	-3353
erweise	-3354
▁culture	-3355
▁unglaublich	-3356
▁comput	-3357
▁Organis	-3358
▁Aufg	-3359
▁easy	-3360
▁Sk	-3361
unch	-3362
▁cities	-3363
▁eyes	-3364
spr	-3365
▁perhaps	-3366
▁90	-3367
▁dan	-3368
ummer	-3369
▁innerhalb	-3370
▁hol	-3371
▁sage	-3372
▁given	-3373
▁Gebäude	-3374
anger	-3375
▁needs	-3376
▁yourself	-3377
jor	-3378
▁Ziel	-3379
▁leave	-3380
▁beginnen	-3381
ehen	-3382
▁serv	-3383
▁hands	-3384
scheiden	-3385
▁turned	-3386
▁ern	-3387
▁event	-3388
agn	-3389
▁Je	-3390
▁simp	-3391
ließen	-3392
▁Part	-3393
▁pract	-3394
oud	-3395
▁tem	-3396
zieren	-3397
▁team	-3398
genommen	-3399
▁World	-3400
▁eight	-3401
▁digital	-3402
▁population	-3403
▁17	-3404
ufen	-3405
▁paper	-3406
▁Dieser	-3407
▁Länder	-3408
▁perform	-3409
▁low	-3410
verage	-3411
▁getan	-3412
▁wegen	-3413
uld	-3414
ails	-3415
▁const	-3416
▁Gleich	-3417
rab	-3418
▁fort	-3419
▁überhaupt	-3420
▁Res	-3421
▁local	-3422
▁Entwicklung	-3423
year	-3424
▁Mil	-3425
▁hold	-3426
▁Su	-3427
iale	-3428
▁communic	-3429
berfl	-3430
▁Chin	-3431
▁terms	-3432
▁Umwelt	-3433
▁sozial	-3434
cin	-3435
hor	-3436
▁saf	-3437
völker	-3438
▁Stück	-3439
▁absolute	-3440
▁fish	-3441
▁beginning	-3442
urt	-3443
orie	-3444
zy	-3445
▁tut	-3446
▁inspir	-3447
▁wonderful	-3448
inder	-3449
▁beob	-3450
▁moral	-3451
▁parts	-3452
pression	-3453
▁Kle	-3454
▁zwar	-3455
system	-3456
▁Vortrag	-3457
▁Sit	-3458
▁zer	-3459
idence	-3460
▁stellt	-3461
▁finally	-3462
▁Herausforder	-3463
haft	-3464
▁potent	-3465
▁obvious	-3466
▁gleichen	-3467
▁mathemat	-3468
book	-3469
▁occ	-3470
▁seeing	-3471
▁fantast	-3472
yl	-3473
▁Just	-3474
▁miss	-3475
▁stra	-3476
▁friend	-3477
▁versucht	-3478
▁evolution	-3479
aug	-3480
▁inde	-3481
isieren	-3482
▁access	-3483
▁interessant	-3484
▁Anfang	-3485
▁Stellen	-3486
▁Universum	-3487
bte	-3488
lev	-3489
text	-3490
▁Ant	-3491
▁tief	-3492
▁father	-3493
▁robot	-3494
aring	-3495
▁Fort	-3496
▁Lage	-3497
▁ansch	-3498
ama	-3499
pid	-3500
▁Tier	-3501
▁Publik	-3502
by	-3503
ängt	-3504
ially	-3505
▁prop	-3506
▁image	-3507
▁simply	-3508
▁reach	-3509
▁cannot	-3510
▁during	-3511
▁schauen	-3512
▁fundament	-3513
bor	-3514
▁Ben	-3515
▁ster	-3516
▁allem	-3517
▁companies	-3518
avor	-3519
baren	-3520
▁blue	-3521
▁spra	-3522
▁treffen	-3523
oun	-3524
achst	-3525
▁Klim	-3526
▁Rest	-3527
▁David	-3528
ove	-3529
▁Nat	-3530
▁architect	-3531
iot	-3532
ales	-3533
elten	-3534
inary	-3535
orten	-3536
▁major	-3537
▁economic	-3538
▁realized	-3539
alif	-3540
▁May	-3541
▁grand	-3542
wand	-3543
▁obs	-3544
▁mole	-3545
▁viol	-3546
▁expect	-3547
umm	-3548
zub	-3549
▁ang	-3550
▁cal	-3551
chter	-3552
iziert	-3553
▁Lehrer	-3554
▁Wochen	-3555
▁erstaun	-3556
wär	-3557
ills	-3558
▁bir	-3559
nahme	-3560
▁Tiere	-3561
▁Prä	-3562
▁media	-3563
▁longer	-3564
▁perfect	-3565
▁Erfahrung	-3566
bert	-3567
▁Zug	-3568
▁unters	-3569
reg	-3570
hood	-3571
▁Neur	-3572
▁thank	-3573
▁verste	-3574
▁nächste	-3575
lam	-3576
▁Zum	-3577
zin	-3578
fully	-3579
▁stay	-3580
rieden	-3581
▁Mittel	-3582
▁bereit	-3583
ilos	-3584
▁sun	-3585
ahren	-3586
▁size	-3587
▁surv	-3588
ziehen	-3589
▁scale	-3590
vention	-3591
▁niemand	-3592
▁weitere	-3593
kü	-3594
ources	-3595
▁fühlen	-3596
▁humans	-3597
fgh	-3598
enne	-3599
omat	-3600
▁Web	-3601
▁needed	-3602
schaffen	-3603
ledge	-3604
▁Essen	-3605
▁special	-3606
▁orig	-3607
▁Polit	-3608
▁Prozess	-3609
▁Kap	-3610
▁enc	-3611
▁fore	-3612
▁Japan	-3613
▁present	-3614
▁reality	-3615
▁menschliche	-3616
hnen	-3617
▁ple	-3618
icks	-3619
▁Tages	-3620
▁People	-3621
▁parents	-3622
▁whatever	-3623
▁Sicherheit	-3624
bel	-3625
nal	-3626
▁Job	-3627
▁Pap	-3628
▁Vir	-3629
▁meines	-3630
acy	-3631
ele	-3632
▁vö	-3633
▁mussten	-3634
▁fac	-3635
▁deren	-3636
▁Typ	-3637
▁bel	-3638
▁conc	-3639
▁Hilfe	-3640
▁lässt	-3641
antwort	-3642
ranken	-3643
▁Dingen	-3644
mm	-3645
Well	-3646
isse	-3647
▁Rei	-3648
▁verst	-3649
▁198	-3650
ritte	-3651
▁ground	-3652
auso	-3653
oten	-3654
lungs	-3655
▁tried	-3656
▁Geschäft	-3657
sein	-3658
▁Kar	-3659
▁feed	-3660
▁kamen	-3661
ingt	-3662
fghan	-3663
annten	-3664
cially	-3665
▁enorm	-3666
▁growth	-3667
▁Archite	-3668
▁21	-3669
iction	-3670
▁wusste	-3671
son	-3672
ünde	-3673
▁felt	-3674
▁democ	-3675
▁Freunde	-3676
▁quickly	-3677
▁hy	-3678
ibility	-3679
▁eigene	-3680
rück	-3681
ograf	-3682
ächst	-3683
▁press	-3684
▁Denken	-3685
ötz	-3686
▁13	-3687
ised	-3688
▁key	-3689
itter	-3690
▁dark	-3691
▁Verein	-3692
▁strong	-3693
▁approach	-3694
ban	-3695
▁recogn	-3696
▁interested	-3697
▁bringt	-3698
uell	-3699
statt	-3700
▁ability	-3701
▁70	-3702
orge	-3703
▁buy	-3704
▁hab	-3705
▁falsch	-3706
▁schlecht	-3707
cious	-3708
▁Mich	-3709
▁erre	-3710
▁Grunde	-3711
▁value	-3712
▁jedoch	-3713
▁bi	-3714
▁okay	-3715
▁pres	-3716
▁spent	-3717
▁Publikum	-3718
ites	-3719
zentr	-3720
▁Haupt	-3721
▁unten	-3722
▁support	-3723
▁Möglichkeiten	-3724
ürger	-3725
▁persön	-3726
▁political	-3727
por	-3728
▁jo	-3729
ains	-3730
▁Oze	-3731
izing	-3732
▁gone	-3733
▁solche	-3734
tete	-3735
usion	-3736
▁Tage	-3737
izieren	-3738
▁Struktur	-3739
isiert	-3740
▁break	-3741
merikan	-3742
▁Gedanken	-3743
imme	-3744
▁Met	-3745
udden	-3746
▁requ	-3747
zellen	-3748
▁Markt	-3749
▁grund	-3750
▁leaders	-3751
iny	-3752
▁lost	-3753
▁animal	-3754
▁App	-3755
▁lab	-3756
ras	-3757
äss	-3758
▁verschw	-3759
hält	-3760
▁send	-3761
▁essen	-3762
▁worden	-3763
▁Öl	-3764
inde	-3765
falls	-3766
uellen	-3767
ücke	-3768
▁Mars	-3769
▁lösen	-3770
▁fu	-3771
▁Gren	-3772
▁Meth	-3773
▁circ	-3774
▁feet	-3775
▁kont	-3776
▁führt	-3777
▁völlig	-3778
▁virt	-3779
▁schreiben	-3780
▁Unterschied	-3781
▁Sek	-3782
▁dau	-3783
nahmen	-3784
▁Boden	-3785
▁stark	-3786
▁wären	-3787
▁opportunity	-3788
ball	-3789
elte	-3790
ouch	-3791
gress	-3792
rogen	-3793
▁Elekt	-3794
▁Nacht	-3795
▁known	-3796
▁direkt	-3797
▁letzte	-3798
▁economy	-3799
▁berü	-3800
▁Bar	-3801
▁ged	-3802
▁phone	-3803
▁weeks	-3804
▁damals	-3805
▁dessen	-3806
res	-3807
▁Tre	-3808
ysteme	-3809
mus	-3810
uth	-3811
spro	-3812
▁Bew	-3813
ently	-3814
▁Park	-3815
▁Thema	-3816
▁Lassen	-3817
▁modern	-3818
▁obwohl	-3819
bau	-3820
▁Dr	-3821
▁foot	-3822
orning	-3823
▁verbess	-3824
▁gemeinsam	-3825
com	-3826
ops	-3827
abil	-3828
wirk	-3829
hrte	-3830
omin	-3831
▁fear	-3832
▁beein	-3833
▁hervor	-3834
▁Bra	-3835
fluss	-3836
▁sitting	-3837
What	-3838
samkeit	-3839
▁mechan	-3840
ows	-3841
ämp	-3842
▁Kü	-3843
ades	-3844
ustain	-3845
▁Mikro	-3846
▁bleiben	-3847
aught	-3848
▁fight	-3849
▁either	-3850
▁suchen	-3851
You	-3852
bon	-3853
irm	-3854
▁Stand	-3855
imension	-3856
▁Staaten	-3857
▁draw	-3858
▁Instit	-3859
▁anderer	-3860
▁gleiche	-3861
▁neg	-3862
▁instit	-3863
▁measure	-3864
cen	-3865
cks	-3866
▁Per	-3867
▁Nein	-3868
▁areas	-3869
flanzen	-3870
▁Afghan	-3871
bol	-3872
hrung	-3873
hören	-3874
ierend	-3875
ötzlich	-3876
▁Lösung	-3877
▁sollen	-3878
▁respons	-3879
▁surface	-3880
▁attention	-3881
▁incredible	-3882
ests	-3883
▁Plan	-3884
▁write	-3885
▁fragte	-3886
go	-3887
▁nu	-3888
rate	-3889
▁ermö	-3890
▁Innov	-3891
▁National	-3892
▁Kr	-3893
▁Ist	-3894
öße	-3895
ators	-3896
▁caus	-3897
▁Woche	-3898
▁Bereich	-3899
▁Gesicht	-3900
▁besteht	-3901
▁Lond	-3902
▁Viele	-3903
▁ed	-3904
▁teilen	-3905
▁consider	-3906
▁challenge	-3907
▁ve	-3908
▁Dam	-3909
zogen	-3910
▁West	-3911
ha	-3912
lef	-3913
▁Mot	-3914
▁eat	-3915
ilden	-3916
▁Nahr	-3917
▁Right	-3918
▁Schwe	-3919
▁Monate	-3920
▁structure	-3921
▁individual	-3922
▁Tra	-3923
▁dad	-3924
ichter	-3925
▁based	-3926
udenten	-3927
▁bottom	-3928
▁patients	-3929
▁betrachten	-3930
oon	-3931
rote	-3932
▁hor	-3933
▁prim	-3934
▁blood	-3935
ausende	-3936
▁numbers	-3937
▁schwierig	-3938
▁Dan	-3939
▁Sym	-3940
jekte	-3941
▁main	-3942
▁direct	-3943
▁photograph	-3944
Was	-3945
rän	-3946
▁komplex	-3947
We	-3948
▁Hoff	-3949
▁step	-3950
▁Autos	-3951
▁changes	-3952
▁funktionieren	-3953
ex	-3954
ilar	-3955
▁squ	-3956
▁slow	-3957
▁Ländern	-3958
erstör	-3959
▁Namen	-3960
▁essent	-3961
▁unseres	-3962
▁bar	-3963
▁Ster	-3964
gebung	-3965
ünstler	-3966
ology	-3967
▁Liebe	-3968
▁climate	-3969
▁genauso	-3970
▁univers	-3971
▁transform	-3972
eum	-3973
inos	-3974
▁Bede	-3975
▁clos	-3976
▁zuvor	-3977
▁morning	-3978
äm	-3979
gefühl	-3980
▁wouldn	-3981
arbeitet	-3982
lin	-3983
oid	-3984
merk	-3985
▁Bau	-3986
▁box	-3987
▁Medik	-3988
▁benöt	-3989
elbe	-3990
▁comb	-3991
▁realize	-3992
▁gefunden	-3993
▁physical	-3994
ikal	-3995
reds	-3996
▁Kat	-3997
zeuge	-3998
▁crit	-3999
▁London	-4000
▁consum	-4001
▁größten	-4002
chie	-4003
lang	-4004
▁emp	-4005
▁Fern	-4006
▁gives	-4007
▁Zellen	-4008
▁meaning	-4009
▁Familien	-4010
▁international	-4011
druck	-4012
ustrie	-4013
osition	-4014
ox	-4015
▁Tats	-4016
▁fall	-4017
forsch	-4018
▁trotz	-4019
▁average	-4020
▁growing	-4021
sc	-4022
▁Mc	-4023
▁Red	-4024
▁log	-4025
ieten	-4026
ollen	-4027
zeigt	-4028
▁farm	-4029
▁pull	-4030
assion	-4031
▁brought	-4032
ores	-4033
finden	-4034
▁Ihren	-4035
▁impact	-4036
oes	-4037
frast	-4038
gegen	-4039
▁teil	-4040
▁images	-4041
ival	-4042
▁emer	-4043
▁sudden	-4044
▁amerikan	-4045
kre	-4046
este	-4047
itze	-4048
▁Our	-4049
utung	-4050
lossen	-4051
▁developed	-4052
vest	-4053
atten	-4054
stein	-4055
▁neues	-4056
▁schre	-4057
▁Modell	-4058
▁zweite	-4059
▁sterben	-4060
zw	-4061
▁kn	-4062
▁tw	-4063
▁born	-4064
▁English	-4065
▁knowledge	-4066
uit	-4067
▁Com	-4068
itzen	-4069
▁finan	-4070
▁medic	-4071
▁feeling	-4072
▁verbunden	-4073
bene	-4074
jähr	-4075
ynam	-4076
▁Sol	-4077
▁sieben	-4078
gn	-4079
ieg	-4080
wart	-4081
▁With	-4082
▁Kraft	-4083
ks	-4084
aft	-4085
blick	-4086
▁seems	-4087
▁theory	-4088
▁Arbeits	-4089
▁national	-4090
▁Är	-4091
▁Best	-4092
▁Wahl	-4093
gewöhn	-4094
▁books	-4095
▁scheint	-4096
▁Wissenschaftler	-4097
leep	-4098
▁vol	-4099
ouble	-4100
ziale	-4101
▁Fisch	-4102
▁Krieg	-4103
▁nimmt	-4104
▁spread	-4105
▁Frei	-4106
▁Unsere	-4107
▁kaufen	-4108
In	-4109
ätze	-4110
▁500	-4111
licht	-4112
▁Verl	-4113
reifen	-4114
unehmen	-4115
▁größte	-4116
igkeiten	-4117
berfläche	-4118
entlichen	-4119
▁understanding	-4120
ube	-4121
▁Fin	-4122
▁deg	-4123
▁ign	-4124
inzip	-4125
▁Europ	-4126
▁giving	-4127
▁beeinfl	-4128
isst	-4129
▁led	-4130
ikaner	-4131
▁civil	-4132
▁lesen	-4133
▁forward	-4134
äß	-4135
▁X	-4136
Das	-4137
bre	-4138
▁flo	-4139
▁Medien	-4140
▁langsam	-4141
▁Bewegung	-4142
▁Revolution	-4143
▁erschaffen	-4144
▁Gemeinschaft	-4145
▁technologies	-4146
ored	-4147
▁syn	-4148
▁Heute	-4149
▁bitte	-4150
▁color	-4151
▁force	-4152
▁liebe	-4153
▁running	-4154
▁welches	-4155
völkerung	-4156
▁audience	-4157
eng	-4158
chsel	-4159
▁scientists	-4160
bten	-4161
idge	-4162
ktor	-4163
▁Cent	-4164
▁wrote	-4165
▁map	-4166
mosph	-4167
organ	-4168
▁Sehen	-4169
▁tools	-4170
▁gelernt	-4171
cis	-4172
oper	-4173
weis	-4174
▁vill	-4175
aliforn	-4176
▁includ	-4177
▁starting	-4178
ersp	-4179
▁Jed	-4180
produ	-4181
▁Wert	-4182
▁prom	-4183
▁literally	-4184
ja	-4185
▁CO	-4186
agieren	-4187
▁Bürger	-4188
▁Technik	-4189
▁Labor	-4190
▁favor	-4191
▁visual	-4192
▁draußen	-4193
▁erinnern	-4194
▁millions	-4195
▁Mag	-4196
▁Brit	-4197
▁Yeah	-4198
▁clear	-4199
▁center	-4200
▁electric	-4201
▁revolution	-4202
head	-4203
▁Zahl	-4204
▁nice	-4205
estern	-4206
gliche	-4207
▁South	-4208
.,	-4209
ips	-4210
äuft	-4211
▁Kam	-4212
lagen	-4213
▁hast	-4214
▁neigh	-4215
prochen	-4216
▁anyone	-4217
▁serious	-4218
▁creating	-4219
▁gegenüber	-4220
jen	-4221
▁24	-4222
▁Gef	-4223
▁prin	-4224
zeitig	-4225
▁white	-4226
▁hundreds	-4227
▁fa	-4228
aged	-4229
▁Reihe	-4230
▁erzählt	-4231
ochen	-4232
▁197	-4233
▁dead	-4234
▁fail	-4235
▁nahm	-4236
▁Schritt	-4237
▁Programm	-4238
▁erklären	-4239
▁wissenschaft	-4240
Th	-4241
▁Tw	-4242
▁fair	-4243
▁rein	-4244
▁wachsen	-4245
▁Technologien	-4246
obody	-4247
▁Alle	-4248
▁Phys	-4249
▁cars	-4250
▁curr	-4251
▁path	-4252
▁ausge	-4253
▁hinaus	-4254
▁leicht	-4255
▁glücklich	-4256
▁Verbindung	-4257
ID	-4258
olz	-4259
▁City	-4260
▁Jeder	-4261
▁Recht	-4262
▁alone	-4263
▁miles	-4264
▁Mathemat	-4265
▁schließlich	-4266
aly	-4267
▁Erk	-4268
▁Tem	-4269
▁erfolg	-4270
▁bewusst	-4271
▁sustain	-4272
aff	-4273
▁optim	-4274
▁fanden	-4275
▁gewesen	-4276
▁telling	-4277
ploy	-4278
▁ice	-4279
▁sea	-4280
▁hine	-4281
▁soon	-4282
andeln	-4283
▁Muster	-4284
▁passieren	-4285
iod	-4286
▁San	-4287
urity	-4288
ändig	-4289
▁hosp	-4290
▁gebaut	-4291
▁bekannt	-4292
▁geworden	-4293
hy	-4294
ules	-4295
zens	-4296
▁Eis	-4297
▁eye	-4298
▁Rück	-4299
▁stage	-4300
▁stran	-4301
▁versch	-4302
▁Kranken	-4303
org	-4304
use	-4305
▁et	-4306
▁lif	-4307
▁unterst	-4308
▁Wahrheit	-4309
▁mob	-4310
äsent	-4311
▁bege	-4312
▁fert	-4313
▁worth	-4314
▁jemals	-4315
des	-4316
ped	-4317
ativ	-4318
▁Face	-4319
mar	-4320
▁By	-4321
afft	-4322
ances	-4323
igent	-4324
▁text	-4325
▁suggest	-4326
wirtschaft	-4327
▁Natürlich	-4328
▁development	-4329
clear	-4330
▁protect	-4331
▁Afghanistan	-4332
cond	-4333
otyp	-4334
▁Team	-4335
▁sehe	-4336
▁guess	-4337
▁daraus	-4338
▁ko	-4339
▁Ök	-4340
iled	-4341
rift	-4342
▁Süd	-4343
▁Blick	-4344
▁Christ	-4345
▁Studenten	-4346
▁discovered	-4347
▁miteinander	-4348
uals	-4349
▁flu	-4350
▁hil	-4351
▁mer	-4352
▁tri	-4353
▁bist	-4354
▁post	-4355
▁Tatsache	-4356
▁developing	-4357
icy	-4358
▁cult	-4359
▁avail	-4360
▁proper	-4361
rael	-4362
asing	-4363
▁block	-4364
▁issue	-4365
▁perfe	-4366
▁folgen	-4367
▁playing	-4368
▁300	-4369
▁har	-4370
rolle	-4371
älfte	-4372
▁road	-4373
▁movement	-4374
örter	-4375
gessen	-4376
▁travel	-4377
▁verloren	-4378
gor	-4379
▁1,	-4380
alter	-4381
onstr	-4382
▁Gewalt	-4383
▁schwar	-4384
▁beginnt	-4385
▁nachdem	-4386
▁aussehen	-4387
▁196	-4388
▁dru	-4389
ungsk	-4390
zeugt	-4391
▁wert	-4392
▁deshalb	-4393
bew	-4394
▁Rad	-4395
▁eth	-4396
▁hon	-4397
▁lay	-4398
▁mom	-4399
▁Stre	-4400
▁aren	-4401
▁song	-4402
iation	-4403
▁Alles	-4404
▁Stimme	-4405
▁positive	-4406
▁Krankheit	-4407
aves	-4408
usch	-4409
▁übr	-4410
itäten	-4411
▁among	-4412
▁hig	-4413
wegen	-4414
▁suff	-4415
▁type	-4416
▁Besch	-4417
▁Platz	-4418
iqu	-4419
oose	-4420
ichtet	-4421
▁Reise	-4422
▁Sicht	-4423
▁Anzahl	-4424
▁concept	-4425
▁anfangen	-4426
0,	-4427
neh	-4428
▁Bas	-4429
▁dro	-4430
ragen	-4431
▁Bildung	-4432
▁möchten	-4433
iko	-4434
▁Ris	-4435
▁Tit	-4436
▁spir	-4437
▁neben	-4438
▁Städte	-4439
▁showed	-4440
umb	-4441
cker	-4442
uchs	-4443
▁mache	-4444
▁Richtung	-4445
▁solution	-4446
Sch	-4447
▁save	-4448
▁zehn	-4449
▁voice	-4450
▁attack	-4451
▁findet	-4452
öst	-4453
ille	-4454
lebt	-4455
ctors	-4456
▁Blut	-4457
gorith	-4458
▁kleines	-4459
▁Demokrat	-4460
▁konzentr	-4461
fern	-4462
wind	-4463
▁Ira	-4464
▁est	-4465
▁raus	-4466
▁verm	-4467
▁benef	-4468
pecially	-4469
▁industry	-4470
▁innovation	-4471
aß	-4472
▁Fr	-4473
▁Ken	-4474
▁sell	-4475
▁truth	-4476
▁issues	-4477
▁similar	-4478
▁Facebook	-4479
▁Tatsächlich	-4480
▁Arm	-4481
▁Som	-4482
▁pur	-4483
icans	-4484
▁dein	-4485
▁smart	-4486
▁Einige	-4487
▁search	-4488
▁Aufgabe	-4489
▁Fuß	-4490
▁Viel	-4491
▁guten	-4492
▁solve	-4493
achstum	-4494
▁danach	-4495
▁experien	-4496
▁recently	-4497
▁weltweit	-4498
▁kü	-4499
aubt	-4500
▁tend	-4501
▁Super	-4502
▁chance	-4503
▁faszin	-4504
▁convers	-4505
▁patient	-4506
▁Forschung	-4507
▁resources	-4508
▁absolutely	-4509
ered	-4510
▁Rel	-4511
▁ear	-4512
griff	-4513
ideos	-4514
recht	-4515
▁acht	-4516
▁sofort	-4517
Pro	-4518
▁Pf	-4519
yond	-4520
atell	-4521
▁toll	-4522
ustral	-4523
▁Ihrem	-4524
▁Ihrer	-4525
▁Rolle	-4526
▁achie	-4527
▁gefähr	-4528
▁gezeigt	-4529
▁Veränderung	-4530
ügen	-4531
▁Aben	-4532
▁Stat	-4533
▁falls	-4534
▁sever	-4535
▁reasons	-4536
▁stellte	-4537
▁Bedeutung	-4538
▁incredibly	-4539
▁entscheiden	-4540
ique	-4541
▁Hel	-4542
▁Meer	-4543
▁camp	-4544
▁Chinese	-4545
▁Während	-4546
▁schrieb	-4547
▁Umgebung	-4548
▁beschäft	-4549
▁designed	-4550
ley	-4551
▁cy	-4552
▁tö	-4553
anze	-4554
bsite	-4555
▁Rich	-4556
▁tiny	-4557
setzen	-4558
▁entfernt	-4559
▁Vorstellung	-4560
ny	-4561
ining	-4562
▁blind	-4563
▁moder	-4564
▁solar	-4565
▁asking	-4566
▁Deshalb	-4567
▁Produkt	-4568
▁plötzlich	-4569
▁compassion	-4570
racy	-4571
▁def	-4572
▁Eigen	-4573
bringen	-4574
sichtlich	-4575
xy	-4576
olf	-4577
dlich	-4578
ierungen	-4579
lim	-4580
▁Prof	-4581
▁egal	-4582
▁infl	-4583
▁shape	-4584
▁talked	-4585
▁medical	-4586
▁soziale	-4587
▁cop	-4588
▁fur	-4589
oices	-4590
▁rate	-4591
ishing	-4592
▁Aktiv	-4593
▁Teile	-4594
▁produce	-4595
▁verwendet	-4596
▁Entscheidungen	-4597
teilt	-4598
andelt	-4599
▁knows	-4600
▁genannt	-4601
▁changing	-4602
rel	-4603
iers	-4604
feren	-4605
ünden	-4606
▁pack	-4607
▁samm	-4608
▁react	-4609
▁allein	-4610
▁available	-4611
▁iP	-4612
auft	-4613
▁sold	-4614
gemein	-4615
▁Erfolg	-4616
▁Sonnen	-4617
▁Wirklich	-4618
▁evidence	-4619
SA	-4620
▁Jo	-4621
ossen	-4622
▁cover	-4623
▁message	-4624
zte	-4625
legt	-4626
▁jen	-4627
roffen	-4628
▁elekt	-4629
▁haven	-4630
itation	-4631
▁vision	-4632
▁predict	-4633
▁Realität	-4634
vin	-4635
ritten	-4636
▁aufge	-4637
▁milit	-4638
▁depend	-4639
▁period	-4640
zufinden	-4641
▁Straßen	-4642
▁bekommt	-4643
▁Mex	-4644
ified	-4645
ussen	-4646
▁Mark	-4647
▁wall	-4648
▁Größe	-4649
▁Psych	-4650
unktion	-4651
wachsen	-4652
▁benutzt	-4653
omb	-4654
unkte	-4655
▁Paul	-4656
▁beyond	-4657
▁choice	-4658
▁komplett	-4659
▁Situation	-4660
▁Ed	-4661
fore	-4662
▁fing	-4663
▁fire	-4664
▁Hälfte	-4665
▁Meinung	-4666
▁involved	-4667
yr	-4668
IDS	-4669
orts	-4670
▁Bel	-4671
▁Zent	-4672
▁flow	-4673
▁veröff	-4674
▁Medizin	-4675
▁Entwicklungs	-4676
▁Beg	-4677
▁anc	-4678
▁baby	-4679
▁tells	-4680
▁touch	-4681
isierung	-4682
▁situation	-4683
▁Herausforderung	-4684
how	-4685
pfer	-4686
▁fix	-4687
essor	-4688
oring	-4689
▁Chem	-4690
▁entsp	-4691
▁sonst	-4692
▁street	-4693
▁computers	-4694
▁erfolgreich	-4695
roh	-4696
wood	-4697
▁tat	-4698
▁Iran	-4699
▁hundred	-4700
▁kleiner	-4701
▁subject	-4702
▁especially	-4703
gra	-4704
▁Fä	-4705
itch	-4706
setz	-4707
▁Dor	-4708
sequen	-4709
▁erklär	-4710
▁becomes	-4711
▁pictures	-4712
.“	-4713
▁Nord	-4714
lage	-4715
▁Erd	-4716
▁peace	-4717
▁bigger	-4718
▁niemals	-4719
cts	-4720
hern	-4721
▁ult	-4722
führen	-4723
▁beide	-4724
▁drive	-4725
▁region	-4726
▁nachdenken	-4727
▁ak	-4728
lied	-4729
iesen	-4730
▁Schü	-4731
▁wish	-4732
▁alten	-4733
▁dream	-4734
▁intelligen	-4735
▁ann	-4736
▁geh	-4737
▁yes	-4738
utage	-4739
indern	-4740
▁überw	-4741
▁Studie	-4742
Wir	-4743
▁Of	-4744
anda	-4745
room	-4746
▁Sau	-4747
▁girls	-4748
▁carbon	-4749
▁danger	-4750
▁writing	-4751
▁Foto	-4752
▁Wind	-4753
▁bekam	-4754
▁mögen	-4755
agement	-4756
▁erreicht	-4757
inne	-4758
▁hoffe	-4759
möglich	-4760
▁länger	-4761
▁putting	-4762
▁betrachte	-4763
imen	-4764
▁Kil	-4765
▁Von	-4766
ängen	-4767
▁rules	-4768
▁sleep	-4769
▁except	-4770
▁kontroll	-4771
ibr	-4772
back	-4773
▁wid	-4774
stens	-4775
ologie	-4776
▁lived	-4777
▁likely	-4778
▁Austral	-4779
▁Generation	-4780
▁generation	-4781
▁profession	-4782
▁Bi	-4783
▁Na	-4784
▁Preis	-4785
▁function	-4786
▁Nachrichten	-4787
ags	-4788
umor	-4789
▁Hir	-4790
üssel	-4791
▁Prinzip	-4792
▁jemanden	-4793
▁Mitgefühl	-4794
ms	-4795
▁Tür	-4796
plant	-4797
ziert	-4798
▁Strom	-4799
▁bacter	-4800
▁groups	-4801
utzutage	-4802
▁general	-4803
▁verrück	-4804
▁fundamental	-4805
fre	-4806
iar	-4807
kel	-4808
ford	-4809
▁fem	-4810
▁Straße	-4811
▁fahren	-4812
▁laufen	-4813
▁lieben	-4814
▁ziehen	-4815
band	-4816
▁Nie	-4817
esser	-4818
▁ersch	-4819
▁Ju	-4820
asen	-4821
auch	-4822
ißen	-4823
▁See	-4824
▁breat	-4825
▁software	-4826
itet	-4827
äume	-4828
▁Tat	-4829
▁drug	-4830
▁evol	-4831
▁North	-4832
▁schau	-4833
▁total	-4834
▁several	-4835
▁Sm	-4836
adem	-4837
▁Bab	-4838
arily	-4839
ected	-4840
▁Bill	-4841
▁ball	-4842
▁rock	-4843
▁Mitte	-4844
▁table	-4845
bildung	-4846
▁Bakter	-4847
▁Europa	-4848
▁gegeben	-4849
▁sent	-4850
▁Zahlen	-4851
▁gingen	-4852
▁bestimmt	-4853
▁extraord	-4854
ify	-4855
▁Will	-4856
▁died	-4857
▁nine	-4858
▁zeige	-4859
▁Kosten	-4860
▁device	-4861
▁Amerika	-4862
ounds	-4863
▁dram	-4864
▁First	-4865
▁Geist	-4866
▁daher	-4867
▁drugs	-4868
▁einfache	-4869
pped	-4870
▁Sonne	-4871
▁links	-4872
▁nennt	-4873
▁Jahrze	-4874
▁nachzu	-4875
arbeiten	-4876
▁conscious	-4877
put	-4878
▁unbe	-4879
lassen	-4880
▁Papier	-4881
▁action	-4882
▁integr	-4883
▁necess	-4884
▁setzen	-4885
▁spricht	-4886
▁Eink	-4887
▁motiv	-4888
▁towards	-4889
▁überras	-4890
▁genommen	-4891
▁herauszufinden	-4892
▁op	-4893
kehr	-4894
▁bee	-4895
▁Einz	-4896
▁rich	-4897
jenigen	-4898
▁Bewusst	-4899
▁capital	-4900
▁strateg	-4901
▁geschieht	-4902
▁schneller	-4903
zü	-4904
win	-4905
affe	-4906
▁Nur	-4907
ienst	-4908
▁sounds	-4909
hre	-4910
änge	-4911
▁Don	-4912
ously	-4913
dessen	-4914
▁Israel	-4915
▁größer	-4916
▁schools	-4917
▁Künstler	-4918
ada	-4919
oke	-4920
atic	-4921
▁akt	-4922
▁sat	-4923
olekü	-4924
spiel	-4925
▁near	-4926
▁intro	-4927
▁Hinter	-4928
indungen	-4929
▁geboren	-4930
▁projects	-4931
▁potential	-4932
▁Fähigkeiten	-4933
oß	-4934
ami	-4935
imal	-4936
▁Maß	-4937
▁speed	-4938
▁brachte	-4939
▁machten	-4940
amb	-4941
▁Sex	-4942
flict	-4943
▁basic	-4944
▁virus	-4945
▁Vereinigten	-4946
ällt	-4947
▁Pal	-4948
ätzen	-4949
▁anzu	-4950
nehmer	-4951
ämpfen	-4952
erstoff	-4953
enschaft	-4954
▁journey	-4955
rief	-4956
teile	-4957
älter	-4958
▁onto	-4959
abhäng	-4960
ivität	-4961
▁After	-4962
▁refle	-4963
▁Kommun	-4964
▁Fortsch	-4965
▁fliegen	-4966
stru	-4967
▁000	-4968
▁gek	-4969
▁lok	-4970
seite	-4971
verty	-4972
▁Geme	-4973
indest	-4974
▁Where	-4975
▁games	-4976
▁Schauen	-4977
wirkungen	-4978
▁Maschine	-4979
▁Beziehung	-4980
▁materials	-4981
▁University	-4982
▁Vol	-4983
▁Hoch	-4984
▁Firma	-4985
▁kreat	-4986
▁examples	-4987
▁interessiert	-4988
▁particularly	-4989
unger	-4990
▁frei	-4991
weisen	-4992
▁activ	-4993
▁liegen	-4994
▁scientific	-4995
atte	-4996
come	-4997
▁kur	-4998
▁mut	-4999
▁Leid	-5000
▁moved	-5001
▁Politik	-5002
▁quality	-5003
▁Oberfläche	-5004
▁wirtschaft	-5005
ette	-5006
artet	-5007
▁park	-5008
▁Ergebnis	-5009
▁sozialen	-5010
▁1.	-5011
▁la	-5012
pidem	-5013
▁Meter	-5014
ilosoph	-5015
▁anybody	-5016
▁results	-5017
▁Hoffnung	-5018
ech	-5019
the	-5020
lauf	-5021
▁character	-5022
▁Det	-5023
▁hit	-5024
antly	-5025
▁warm	-5026
▁track	-5027
▁office	-5028
wh	-5029
esh	-5030
▁gebe	-5031
▁rece	-5032
▁stimmt	-5033
▁Richard	-5034
▁absolut	-5035
▁anstatt	-5036
▁zerstör	-5037
▁happiness	-5038
▁Gu	-5039
▁TV	-5040
feld	-5041
▁Are	-5042
▁Männ	-5043
▁bank	-5044
lungen	-5045
teilen	-5046
▁Kolle	-5047
▁Fehler	-5048
▁showing	-5049
Die	-5050
piele	-5051
▁nahe	-5052
▁wild	-5053
▁Islam	-5054
▁mount	-5055
▁multi	-5056
▁histor	-5057
▁gesamte	-5058
▁oh	-5059
viel	-5060
▁Yes	-5061
▁heut	-5062
isions	-5063
▁plant	-5064
▁trust	-5065
▁wants	-5066
▁Behand	-5067
▁student	-5068
ham	-5069
onse	-5070
▁arr	-5071
▁Wand	-5072
▁demonstr	-5073
▁wichtige	-5074
▁transport	-5075
▁Demokratie	-5076
▁repl	-5077
▁Kreat	-5078
▁Maybe	-5079
▁apart	-5080
▁biggest	-5081
▁largest	-5082
▁passion	-5083
▁begannen	-5084
issenschaft	-5085
merksamkeit	-5086
▁gleichzeitig	-5087
leg	-5088
bung	-5089
▁nein	-5090
▁Armut	-5091
▁Schön	-5092
▁verfü	-5093
▁starts	-5094
▁Schulen	-5095
▁teachers	-5096
medi	-5097
▁gas	-5098
▁cris	-5099
gendes	-5100
trauen	-5101
▁ernst	-5102
▁walking	-5103
▁geschrieben	-5104
ägt	-5105
bald	-5106
ickt	-5107
ikel	-5108
oming	-5109
▁Ding	-5110
▁sprach	-5111
▁further	-5112
▁irgende	-5113
▁chemical	-5114
▁progress	-5115
▁violence	-5116
▁Aufmerksamkeit	-5117
arf	-5118
▁Zw	-5119
ellow	-5120
enken	-5121
▁Druck	-5122
▁Karte	-5123
▁effic	-5124
▁verurs	-5125
▁zuerst	-5126
▁dachten	-5127
▁creative	-5128
▁obviously	-5129
enk	-5130
▁Russ	-5131
▁verh	-5132
altung	-5133
ativen	-5134
▁Alter	-5135
▁separ	-5136
▁memory	-5137
▁screen	-5138
▁exciting	-5139
▁security	-5140
▁wichtiger	-5141
▁Fle	-5142
▁Frü	-5143
ghter	-5144
igens	-5145
▁Terr	-5146
▁Ozean	-5147
▁clean	-5148
▁graph	-5149
▁Gruppen	-5150
▁poverty	-5151
▁certainly	-5152
ta	-5153
▁bill	-5154
▁cross	-5155
▁Wieder	-5156
▁medizin	-5157
▁democracy	-5158
▁gesprochen	-5159
ari	-5160
zer	-5161
ürf	-5162
more	-5163
▁früher	-5164
▁hinein	-5165
▁terror	-5166
▁Pflanzen	-5167
ohl	-5168
▁Po	-5169
▁Auch	-5170
▁Büro	-5171
▁desc	-5172
▁prot	-5173
plicated	-5174
▁context	-5175
▁totally	-5176
▁everywhere	-5177
like	-5178
nete	-5179
▁Any	-5180
▁jobs	-5181
ometer	-5182
tember	-5183
▁Seiten	-5184
▁großer	-5185
▁threat	-5186
▁tragen	-5187
▁Menschheit	-5188
▁Sw	-5189
stre	-5190
▁400	-5191
▁Abs	-5192
▁fam	-5193
▁bald	-5194
▁Bücher	-5195
▁kosten	-5196
▁nobody	-5197
▁Studien	-5198
▁neighbor	-5199
▁extremely	-5200
▁Experiment	-5201
▁Id	-5202
erve	-5203
front	-5204
odies	-5205
▁door	-5206
▁role	-5207
▁carry	-5208
▁camera	-5209
▁compet	-5210
▁member	-5211
▁bessere	-5212
▁particip	-5213
etic	-5214
▁swe	-5215
astic	-5216
▁meant	-5217
▁Regeln	-5218
▁bewegt	-5219
▁higher	-5220
▁transl	-5221
ror	-5222
deck	-5223
▁Eff	-5224
▁Erf	-5225
▁Kan	-5226
▁Tro	-5227
▁Genau	-5228
▁Reaktion	-5229
▁conflict	-5230
▁verlassen	-5231
icle	-5232
▁Dorf	-5233
▁Orte	-5234
▁citi	-5235
▁dynam	-5236
▁junge	-5237
▁Wörter	-5238
▁Zugang	-5239
▁account	-5240
▁Evolution	-5241
▁passierte	-5242
▁represent	-5243
▁Bevölkerung	-5244
IT	-5245
osen	-5246
plan	-5247
ulpt	-5248
▁150	-5249
▁nar	-5250
▁Baby	-5251
▁ihres	-5252
▁kompl	-5253
ruption	-5254
▁verbra	-5255
▁deliver	-5256
▁ähnlich	-5257
▁response	-5258
imin	-5259
▁Hin	-5260
▁inf	-5261
▁capt	-5262
ustand	-5263
▁sahen	-5264
underte	-5265
▁bedeuten	-5266
ramm	-5267
▁Ser	-5268
▁Str	-5269
▁ehr	-5270
▁mis	-5271
▁Ress	-5272
ground	-5273
ourcen	-5274
wasser	-5275
▁spirit	-5276
▁verbessern	-5277
ares	-5278
erei	-5279
▁hot	-5280
dress	-5281
▁Most	-5282
▁lose	-5283
▁Niger	-5284
osystem	-5285
▁Einfluss	-5286
▁continue	-5287
▁Medikamen	-5288
▁beobachten	-5289
abel	-5290
mark	-5291
▁boy	-5292
▁Himm	-5293
▁appl	-5294
▁poll	-5295
▁minds	-5296
▁brains	-5297
▁notice	-5298
▁private	-5299
▁collabor	-5300
▁Kontrolle	-5301
unt	-5302
krie	-5303
▁Los	-5304
▁gern	-5305
▁trial	-5306
▁urban	-5307
▁Versuch	-5308
▁objects	-5309
▁favorite	-5310
▁bestimmten	-5311
▁.	-5312
mon	-5313
ppe	-5314
▁Baum	-5315
▁ö	-5316
ael	-5317
lei	-5318
rage	-5319
zies	-5320
▁Col	-5321
▁sod	-5322
▁zus	-5323
eless	-5324
▁birth	-5325
▁ready	-5326
ikation	-5327
▁sequen	-5328
▁Software	-5329
▁thousand	-5330
ils	-5331
inken	-5332
ächen	-5333
▁näher	-5334
unately	-5335
▁including	-5336
▁versuchte	-5337
▁gearbeitet	-5338
ee	-5339
ery	-5340
etze	-5341
ützt	-5342
▁Uhr	-5343
▁sil	-5344
▁Sohn	-5345
▁safe	-5346
▁sand	-5347
▁Telef	-5348
▁adult	-5349
▁prakt	-5350
iologie	-5351
ossible	-5352
▁Universität	-5353
amin	-5354
▁ine	-5355
zusch	-5356
▁Wohn	-5357
▁natür	-5358
indruck	-5359
▁nation	-5360
▁watching	-5361
▁Innovation	-5362
▁individuals	-5363
▁extraordinary	-5364
ala	-5365
ller	-5366
▁cause	-5367
▁trees	-5368
▁ständig	-5369
▁supposed	-5370
▁Krankheiten	-5371
uk	-5372
hes	-5373
▁vac	-5374
orfen	-5375
▁empf	-5376
▁altern	-5377
▁Grenzen	-5378
▁ansehen	-5379
▁Ag	-5380
▁Hy	-5381
▁Sim	-5382
iegel	-5383
▁lern	-5384
▁finde	-5385
▁named	-5386
▁quant	-5387
▁remark	-5388
▁Erinner	-5389
▁Monaten	-5390
▁bemerken	-5391
▁medicine	-5392
▁buildings	-5393
▁connected	-5394
▁Ir	-5395
▁NA	-5396
▁Fil	-5397
▁Lauf	-5398
▁fill	-5399
▁models	-5400
▁Konzept	-5401
▁discuss	-5402
▁perspect	-5403
▁eventually	-5404
eit	-5405
▁Trä	-5406
▁2000	-5407
▁Bank	-5408
▁Mehr	-5409
▁list	-5410
▁Regen	-5411
▁Relig	-5412
▁labor	-5413
▁bleibt	-5414
▁activity	-5415
▁Beispiele	-5416
▁psycholog	-5417
abl	-5418
rep	-5419
itte	-5420
▁Arab	-5421
▁meth	-5422
▁diagn	-5423
▁inform	-5424
▁finding	-5425
▁nuclear	-5426
▁village	-5427
▁communities	-5428
Re	-5429
tex	-5430
letz	-5431
ulate	-5432
▁gehe	-5433
▁grew	-5434
▁laun	-5435
schlag	-5436
▁crazy	-5437
peratur	-5438
▁author	-5439
entliche	-5440
▁African	-5441
ragt	-5442
▁Gel	-5443
ables	-5444
▁Gene	-5445
▁skin	-5446
schluss	-5447
▁Morgen	-5448
▁faster	-5449
▁plants	-5450
▁return	-5451
▁source	-5452
▁studies	-5453
windigkeit	-5454
öp	-5455
kon	-5456
obil	-5457
▁Act	-5458
▁etc	-5459
▁Phil	-5460
▁Sand	-5461
▁clin	-5462
▁worse	-5463
▁affect	-5464
▁sitzen	-5465
eles	-5466
▁push	-5467
ements	-5468
▁einzelne	-5469
▁richtige	-5470
▁richtigen	-5471
▁essentially	-5472
hem	-5473
▁Hü	-5474
▁tar	-5475
▁dete	-5476
▁goal	-5477
▁Eines	-5478
▁Galax	-5479
hington	-5480
▁Können	-5481
▁appear	-5482
▁Nachbar	-5483
▁concern	-5484
▁teacher	-5485
▁hospital	-5486
20	-5487
kr	-5488
joy	-5489
zwe	-5490
ünft	-5491
▁Orten	-5492
▁truly	-5493
▁disapp	-5494
▁taught	-5495
▁Twitter	-5496
▁arbeitet	-5497
▁Vergangen	-5498
▁conditions	-5499
▁offensichtlich	-5500
gy	-5501
ufe	-5502
▁Asp	-5503
▁Ord	-5504
▁Who	-5505
▁Even	-5506
▁bunch	-5507
▁movie	-5508
▁Stelle	-5509
▁bilden	-5510
▁spezie	-5511
▁Francis	-5512
▁position	-5513
▁Mathematik	-5514
sm	-5515
▁Go	-5516
lern	-5517
▁Bud	-5518
annen	-5519
aving	-5520
▁Look	-5521
▁Spaß	-5522
▁Wohl	-5523
ausend	-5524
▁lands	-5525
ilities	-5526
▁Invest	-5527
▁introdu	-5528
▁wussten	-5529
▁suddenly	-5530
▁vergessen	-5531
plex	-5532
atory	-5533
▁mine	-5534
aterie	-5535
▁denkt	-5536
▁forms	-5537
▁galax	-5538
▁waste	-5539
▁immedi	-5540
▁princi	-5541
▁colleag	-5542
üss	-5543
rior	-5544
stet	-5545
wert	-5546
▁Daher	-5547
▁shown	-5548
▁voller	-5549
▁Schüler	-5550
▁products	-5551
▁Washington	-5552
▁$	-5553
bit	-5554
olly	-5555
▁East	-5556
▁Port	-5557
▁fell	-5558
▁phen	-5559
▁doctor	-5560
▁großes	-5561
▁stress	-5562
abet	-5563
gere	-5564
uern	-5565
▁Bot	-5566
▁bal	-5567
▁rot	-5568
räfte	-5569
▁Oper	-5570
▁choose	-5571
▁verlieren	-5572
▁impossible	-5573
▁Wirklichkeit	-5574
▁nachzudenken	-5575
ürz	-5576
▁35	-5577
▁Ern	-5578
▁Tas	-5579
▁Zuf	-5580
▁Priv	-5581
▁Konfl	-5582
▁Tagen	-5583
▁Molekü	-5584
▁analys	-5585
▁crisis	-5586
ständnis	-5587
▁massive	-5588
urg	-5589
arian	-5590
▁Zeug	-5591
▁late	-5592
▁site	-5593
astrop	-5594
▁above	-5595
ustrial	-5596
▁Firmen	-5597
▁Gebiet	-5598
zeichnet	-5599
▁erzeugen	-5600
▁möglichen	-5601
▁complicated	-5602
▁Vergangenheit	-5603
abr	-5604
cape	-5605
edia	-5606
bauen	-5607
▁Kern	-5608
▁cart	-5609
▁rele	-5610
▁dahin	-5611
▁sorts	-5612
▁indeed	-5613
▁address	-5614
ued	-5615
edom	-5616
ender	-5617
onent	-5618
▁mist	-5619
ferenz	-5620
▁domin	-5621
▁höher	-5622
▁kannst	-5623
▁larger	-5624
▁erlaubt	-5625
▁respond	-5626
▁globalen	-5627
▁Bakterien	-5628
▁somewhere	-5629
▁traditional	-5630
dom	-5631
osh	-5632
rig	-5633
ires	-5634
ises	-5635
erven	-5636
▁deut	-5637
▁rain	-5638
ctions	-5639
ielten	-5640
ribute	-5641
ruction	-5642
legenheit	-5643
▁arbeitete	-5644
▁Ergebnisse	-5645
osm	-5646
▁sn	-5647
▁doc	-5648
▁rid	-5649
▁Sign	-5650
▁task	-5651
ensive	-5652
▁Feuer	-5653
▁Terror	-5654
▁killed	-5655
▁retten	-5656
▁Frieden	-5657
▁anschauen	-5658
▁Entscheidung	-5659
nder	-5660
nehm	-5661
▁stär	-5662
▁Gerät	-5663
▁lower	-5664
izations	-5665
▁allowed	-5666
▁hundert	-5667
▁gebracht	-5668
▁signific	-5669
▁»	-5670
Wie	-5671
spe	-5672
▁tä	-5673
itor	-5674
klär	-5675
ured	-5676
▁cat	-5677
▁häuf	-5678
ierende	-5679
▁minute	-5680
▁robots	-5681
▁England	-5682
ser	-5683
was	-5684
▁Gut	-5685
▁Wel	-5686
▁purp	-5687
▁Kampf	-5688
▁enjoy	-5689
▁Gesetz	-5690
▁Landes	-5691
▁Spezies	-5692
▁Nachricht	-5693
▁interview	-5694
▁zumindest	-5695
imb	-5696
iced	-5697
▁erg	-5698
▁Worte	-5699
▁earth	-5700
▁afford	-5701
▁allows	-5702
▁launch	-5703
▁mental	-5704
▁points	-5705
▁aussieht	-5706
ya	-5707
▁Mü	-5708
ckte	-5709
falt	-5710
▁kre	-5711
▁pan	-5712
rasch	-5713
▁coun	-5714
▁Leist	-5715
▁Today	-5716
▁deine	-5717
▁fascin	-5718
▁führte	-5719
▁irgendwo	-5720
▁phenomen	-5721
▁training	-5722
▁surprising	-5723
ört	-5724
merz	-5725
▁web	-5726
erman	-5727
iegen	-5728
▁winz	-5729
stellt	-5730
▁cases	-5731
▁ended	-5732
isation	-5733
▁gewalt	-5734
▁manche	-5735
▁series	-5736
▁gewinnen	-5737
▁produzieren	-5738
30	-5739
▁MIT	-5740
altet	-5741
▁AIDS	-5742
▁Kong	-5743
▁selt	-5744
▁wife	-5745
ournal	-5746
▁alive	-5747
▁attra	-5748
▁stick	-5749
▁Theorie	-5750
▁Personen	-5751
▁bacteria	-5752
fs	-5753
ius	-5754
▁pen	-5755
board	-5756
▁Haut	-5757
▁Ebene	-5758
▁Those	-5759
▁decision	-5760
▁gesamten	-5761
▁Verantwort	-5762
vert	-5763
▁Test	-5764
▁Zwei	-5765
▁echt	-5766
reiten	-5767
▁James	-5768
▁Stamm	-5769
▁hilft	-5770
▁Objekt	-5771
▁beings	-5772
▁morgen	-5773
▁usually	-5774
▁increase	-5775
▁Del	-5776
▁bur	-5777
genie	-5778
▁card	-5779
though	-5780
▁check	-5781
▁bodies	-5782
▁fertig	-5783
▁sodass	-5784
▁symbol	-5785
▁college	-5786
▁schreck	-5787
▁critical	-5788
▁families	-5789
▁architecture	-5790
No	-5791
rem	-5792
mals	-5793
mand	-5794
ücht	-5795
leist	-5796
▁High	-5797
▁inse	-5798
▁wait	-5799
▁sowohl	-5800
▁healthy	-5801
▁erfahren	-5802
▁patterns	-5803
▁standing	-5804
▁trotzdem	-5805
▁successful	-5806
ara	-5807
lier	-5808
obal	-5809
▁Imag	-5810
▁kaum	-5811
icians	-5812
werfen	-5813
▁Hände	-5814
▁older	-5815
▁einges	-5816
▁keiner	-5817
▁excited	-5818
▁physics	-5819
▁Regierungen	-5820
▁perspective	-5821
po	-5822
▁Sa	-5823
▁Jul	-5824
▁code	-5825
vented	-5826
▁price	-5827
▁conversation	-5828
ago	-5829
ids	-5830
uls	-5831
▁dog	-5832
▁mat	-5833
▁sky	-5834
änden	-5835
örder	-5836
▁fine	-5837
▁luck	-5838
▁vert	-5839
utzung	-5840
▁George	-5841
▁School	-5842
▁pieces	-5843
▁reading	-5844
▁verbinden	-5845
▁electricity	-5846
ux	-5847
ray	-5848
rene	-5849
▁Ker	-5850
▁oxy	-5851
blich	-5852
▁Heim	-5853
▁burn	-5854
▁traf	-5855
▁throw	-5856
▁prison	-5857
▁solchen	-5858
▁befinden	-5859
▁Like	-5860
▁lines	-5861
▁Geheim	-5862
▁Michael	-5863
▁doctors	-5864
▁influen	-5865
▁mention	-5866
▁provide	-5867
▁Sekunden	-5868
▁heutzutage	-5869
▁untersuchen	-5870
dig	-5871
pol	-5872
prü	-5873
isms	-5874
rang	-5875
▁Bus	-5876
holen	-5877
▁cook	-5878
ierter	-5879
▁Gespr	-5880
▁aktiv	-5881
▁Chance	-5882
▁Gefäng	-5883
▁spielt	-5884
▁Netzwerk	-5885
▁erschein	-5886
▁versuche	-5887
▁treatment	-5888
ählt	-5889
▁Nor	-5890
kelet	-5891
orben	-5892
iments	-5893
machen	-5894
▁Fotos	-5895
▁Somet	-5896
▁aufre	-5897
ingungen	-5898
▁somehow	-5899
▁Anderson	-5900
▁specific	-5901
licherweise	-5902
▁Wahrscheinlich	-5903
ulf	-5904
wür	-5905
cies	-5906
ingu	-5907
▁Che	-5908
▁Tom	-5909
▁lag	-5910
hnung	-5911
▁Hall	-5912
▁Kons	-5913
▁upon	-5914
▁Prote	-5915
▁Indian	-5916
▁Second	-5917
▁biology	-5918
▁describ	-5919
▁neurons	-5920
▁riesige	-5921
▁bestimmte	-5922
▁einzelnen	-5923
▁entdecken	-5924
▁geschehen	-5925
▁unmöglich	-5926
örp	-5927
▁Kur	-5928
iling	-5929
▁Disk	-5930
▁Präs	-5931
▁alte	-5932
▁einzig	-5933
▁rights	-5934
▁zeigte	-5935
iversity	-5936
▁himself	-5937
▁anywhere	-5938
▁argument	-5939
▁emotional	-5940
▁Amerikaner	-5941
▁Bewusstsein	-5942
aup	-5943
▁Ru	-5944
▁bor	-5945
riere	-5946
teten	-5947
▁tree	-5948
▁yeah	-5949
assung	-5950
▁talks	-5951
▁written	-5952
▁gekommen	-5953
▁Erwachsen	-5954
▁Ressourcen	-5955
▁Nä	-5956
pret	-5957
▁Tal	-5958
▁bau	-5959
▁inn	-5960
▁kept	-5961
glicht	-5962
▁Times	-5963
▁magic	-5964
▁express	-5965
▁recognize	-5966
▁Architektur	-5967
amt	-5968
▁Mr	-5969
▁Sä	-5970
▁Dis	-5971
seits	-5972
▁sele	-5973
▁town	-5974
▁Monat	-5975
▁nenne	-5976
▁stars	-5977
▁Charles	-5978
▁smaller	-5979
▁decisions	-5980
hang	-5981
wers	-5982
▁Pak	-5983
kommt	-5984
redit	-5985
▁erhö	-5986
▁port	-5987
▁wirk	-5988
▁Frank	-5989
▁Formen	-5990
▁automat	-5991
▁seconds	-5992
▁Funktion	-5993
▁Kollegen	-5994
▁Wachstum	-5995
▁aufgrund	-5996
▁military	-5997
▁programm	-5998
▁increasing	-5999
aim	-6000
ios	-6001
aria	-6002
hyth	-6003
scht	-6004
▁bab	-6005
▁hop	-6006
ahmen	-6007
▁Arzt	-6008
▁Mond	-6009
▁hält	-6010
▁rund	-6011
ektive	-6012
wenden	-6013
▁Museum	-6014
▁erklärt	-6015
▁version	-6016
▁ermöglicht	-6017
▁Auswirkungen	-6018
▁organization	-6019
key	-6020
buch	-6021
ilet	-6022
aging	-6023
äuser	-6024
▁math	-6025
▁neun	-6026
▁uses	-6027
▁wund	-6028
reitet	-6029
▁Bezug	-6030
▁letzt	-6031
▁calcul	-6032
▁runter	-6033
▁Partner	-6034
▁gefragt	-6035
▁großartige	-6036
rech	-6037
same	-6038
▁whe	-6039
lands	-6040
sprün	-6041
▁lebt	-6042
▁page	-6043
▁wann	-6044
ightly	-6045
▁Bühne	-6046
▁angef	-6047
▁occur	-6048
▁Bienen	-6049
▁skills	-6050
▁service	-6051
zi	-6052
▁fil	-6053
▁wes	-6054
▁west	-6055
istent	-6056
▁passen	-6057
▁Glauben	-6058
▁content	-6059
▁becoming	-6060
▁humanity	-6061
▁machines	-6062
mäß	-6063
▁ca	-6064
time	-6065
▁roll	-6066
ration	-6067
zimmer	-6068
▁Linie	-6069
▁genes	-6070
▁molec	-6071
ualität	-6072
▁jungen	-6073
▁messen	-6074
▁statist	-6075
▁Designer	-6076
▁listening	-6077
yle	-6078
▁Gh	-6079
▁Ok	-6080
▁cele	-6081
ieties	-6082
▁Traum	-6083
▁Which	-6084
▁actual	-6085
▁Entdeck	-6086
▁painting	-6087
▁straight	-6088
fortunately	-6089
5,	-6090
leb	-6091
äte	-6092
play	-6093
▁Sep	-6094
▁Wik	-6095
gener	-6096
äusch	-6097
ameras	-6098
zahlen	-6099
▁Zivil	-6100
▁board	-6101
▁ignor	-6102
▁employ	-6103
▁please	-6104
▁secret	-6105
▁anymore	-6106
▁dadurch	-6107
▁Beziehungen	-6108
8,	-6109
Be	-6110
ähig	-6111
▁las	-6112
▁veh	-6113
emand	-6114
▁Ball	-6115
▁Sold	-6116
▁Klimaw	-6117
▁weight	-6118
▁standard	-6119
▁großartig	-6120
▁betrachtet	-6121
▁herausfinden	-6122
ino	-6123
dete	-6124
▁Wür	-6125
▁Inse	-6126
▁Rand	-6127
▁rand	-6128
▁vern	-6129
▁spect	-6130
erences	-6131
▁Ordnung	-6132
▁leisten	-6133
▁sammeln	-6134
▁Americans	-6135
▁performance	-6136
▁öffentlichen	-6137
▁Ere	-6138
▁sor	-6139
ildet	-6140
werke	-6141
▁Berg	-6142
▁legs	-6143
▁nerv	-6144
▁rise	-6145
▁Ärzte	-6146
▁Himmel	-6147
▁beauty	-6148
▁schützen	-6149
▁dangerous	-6150
▁solutions	-6151
9,	-6152
Es	-6153
tes	-6154
hner	-6155
iner	-6156
reng	-6157
will	-6158
▁kil	-6159
▁nut	-6160
▁Höhe	-6161
atives	-6162
▁Angel	-6163
▁Außer	-6164
▁hörte	-6165
▁loved	-6166
▁läuft	-6167
▁Jahres	-6168
▁determ	-6169
▁kommun	-6170
▁policy	-6171
▁verfol	-6172
▁current	-6173
▁Flugzeug	-6174
▁entdeckt	-6175
▁verstanden	-6176
pts	-6177
seit	-6178
attle	-6179
auber	-6180
ellen	-6181
ühren	-6182
▁Miss	-6183
▁cold	-6184
▁lief	-6185
▁niedr	-6186
▁strug	-6187
mitteln	-6188
▁Methode	-6189
▁greater	-6190
▁Freiheit	-6191
▁bestehen	-6192
▁einander	-6193
▁September	-6194
▁expensive	-6195
▁normalerweise	-6196
icon	-6197
trag	-6198
▁Rep	-6199
grupp	-6200
▁Gold	-6201
▁desp	-6202
▁harm	-6203
▁zufä	-6204
▁Damit	-6205
▁brand	-6206
▁danke	-6207
▁Nahrung	-6208
▁Systeme	-6209
▁intelle	-6210
▁gestellt	-6211
2,	-6212
iat	-6213
sta	-6214
▁Co	-6215
aker	-6216
vard	-6217
ährt	-6218
▁höch	-6219
stoffe	-6220
▁Schne	-6221
▁catch	-6222
▁Gründe	-6223
▁police	-6224
zunehmen	-6225
▁brother	-6226
▁earlier	-6227
▁willing	-6228
▁Einstein	-6229
▁erzählte	-6230
▁familiar	-6231
▁entschieden	-6232
phone	-6233
steht	-6234
▁Herr	-6235
▁crow	-6236
▁jump	-6237
▁Sinne	-6238
▁glass	-6239
arbeiter	-6240
▁Imagine	-6241
▁zweiten	-6242
▁Ak	-6243
berg	-6244
elle	-6245
ffic	-6246
ütter	-6247
▁abge	-6248
▁Einer	-6249
▁drink	-6250
▁Ingenie	-6251
▁clearly	-6252
▁genetic	-6253
▁citizens	-6254
▁Maschinen	-6255
▁diejenigen	-6256
▁throughout	-6257
▁intelligence	-6258
▁Ame	-6259
acity	-6260
▁Bang	-6261
▁Verfü	-6262
▁funny	-6263
▁reich	-6264
▁älter	-6265
teilung	-6266
▁plastic	-6267
▁Krankenhaus	-6268
ads	-6269
con	-6270
▁45	-6271
ften	-6272
oden	-6273
önen	-6274
▁fit	-6275
▁Erst	-6276
▁leid	-6277
▁costs	-6278
▁worry	-6279
schiede	-6280
▁Jungen	-6281
▁bisher	-6282
▁famous	-6283
▁rechts	-6284
▁außerhalb	-6285
▁environmental	-6286
War	-6287
iant	-6288
▁sam	-6289
anter	-6290
▁Komp	-6291
▁Norm	-6292
▁früh	-6293
▁shot	-6294
▁weap	-6295
▁store	-6296
▁weren	-6297
inosaur	-6298
reprene	-6299
▁Geburt	-6300
ierenden	-6301
▁Another	-6302
▁comfort	-6303
▁practice	-6304
▁geschaffen	-6305
▁production	-6306
ae	-6307
bü	-6308
▁,	-6309
sum	-6310
▁Sl	-6311
ceed	-6312
ding	-6313
ends	-6314
▁Eth	-6315
▁ord	-6316
reten	-6317
▁Pass	-6318
rochen	-6319
▁Brust	-6320
▁range	-6321
▁fallen	-6322
▁levels	-6323
▁random	-6324
▁Harvard	-6325
▁befindet	-6326
▁übrigens	-6327
osc	-6328
itat	-6329
▁hell	-6330
änomen	-6331
▁Green	-6332
▁Liebl	-6333
▁liber	-6334
▁mächt	-6335
▁career	-6336
▁forest	-6337
▁surger	-6338
▁Gehirns	-6339
▁freedom	-6340
▁greatest	-6341
▁interessante	-6342
ancy	-6343
lant	-6344
▁ther	-6345
▁Regel	-6346
▁Darwin	-6347
▁Lernen	-6348
▁behaup	-6349
▁handelt	-6350
mend	-6351
riff	-6352
ained	-6353
aries	-6354
iding	-6355
orien	-6356
ringt	-6357
▁antw	-6358
sweise	-6359
▁Fluss	-6360
▁König	-6361
▁Comput	-6362
▁Nerven	-6363
▁decade	-6364
▁saving	-6365
▁values	-6366
▁waiting	-6367
▁website	-6368
▁einzigen	-6369
▁herunter	-6370
▁effective	-6371
▁therefore	-6372
inct	-6373
▁Kir	-6374
itens	-6375
reche	-6376
▁Mont	-6377
▁Noch	-6378
▁Vier	-6379
▁ille	-6380
tragen	-6381
▁Farbe	-6382
▁Schle	-6383
▁final	-6384
▁legal	-6385
▁Drogen	-6386
▁Nummer	-6387
▁decades	-6388
▁welcher	-6389
▁Vergleich	-6390
7,	-6391
afr	-6392
afen	-6393
▁cru	-6394
▁sus	-6395
etzte	-6396
reibt	-6397
rifft	-6398
▁Gefü	-6399
▁uner	-6400
stelle	-6401
gesetzt	-6402
▁artist	-6403
▁Western	-6404
▁driving	-6405
▁fantastic	-6406
▁grundlegen	-6407
▁unterstützen	-6408
äst	-6409
▁Sal	-6410
itten	-6411
▁Fakt	-6412
▁Wege	-6413
schuld	-6414
▁desto	-6415
▁forth	-6416
imately	-6417
▁Einzel	-6418
▁Intell	-6419
▁ebenso	-6420
▁profit	-6421
▁meeting	-6422
▁teaching	-6423
▁wundersch	-6424
▁Erfahrungen	-6425
▁amerikanischen	-6426
iens	-6427
▁dri	-6428
▁inj	-6429
achtet	-6430
▁aufzu	-6431
▁shark	-6432
▁taten	-6433
▁Beginn	-6434
▁Individ	-6435
▁Pakistan	-6436
▁Verständnis	-6437
ec	-6438
hib	-6439
upp	-6440
anne	-6441
apes	-6442
▁Gal	-6443
▁His	-6444
▁ran	-6445
ählen	-6446
▁ausz	-6447
▁poet	-6448
nungen	-6449
▁encou	-6450
unächst	-6451
▁Meeres	-6452
▁mobile	-6453
▁remind	-6454
▁selben	-6455
▁temper	-6456
▁walked	-6457
▁remarkable	-6458
Hey	-6459
uzz	-6460
aptop	-6461
wärts	-6462
▁Hirn	-6463
▁Lehr	-6464
▁foss	-6465
▁unver	-6466
▁warten	-6467
▁Erkennt	-6468
▁respect	-6469
▁strange	-6470
▁direction	-6471
▁Behandlung	-6472
▁connection	-6473
▁herstellen	-6474
▁intelligent	-6475
▁Organisation	-6476
Nein	-6477
lose	-6478
▁Jan	-6479
▁Alex	-6480
schirm	-6481
▁Muslim	-6482
▁Robert	-6483
▁babies	-6484
▁celebr	-6485
▁dritte	-6486
▁improv	-6487
▁square	-6488
▁Lösungen	-6489
▁entweder	-6490
▁heutigen	-6491
▁einfachen	-6492
▁governments	-6493
ikt	-6494
▁Lö	-6495
hers	-6496
omas	-6497
▁cry	-6498
uchst	-6499
▁Wald	-6500
▁Your	-6501
▁lust	-6502
ätzlich	-6503
▁myster	-6504
▁wealth	-6505
▁Californ	-6506
▁Englisch	-6507
▁erwarten	-6508
▁invented	-6509
▁politics	-6510
▁institutions	-6511
ady	-6512
alle	-6513
▁Two	-6514
▁deb	-6515
platz	-6516
unsch	-6517
rennen	-6518
▁ahead	-6519
▁floor	-6520
▁types	-6521
▁Westen	-6522
▁invent	-6523
▁wenige	-6524
▁choices	-6525
▁erleben	-6526
ikanischen	-6527
▁Medikamente	-6528
Ja	-6529
hi	-6530
▁km	-6531
wick	-6532
▁Bru	-6533
▁Sil	-6534
▁Ton	-6535
▁div	-6536
▁Name	-6537
▁laws	-6538
passen	-6539
▁Instr	-6540
▁Liste	-6541
▁Steve	-6542
▁match	-6543
▁method	-6544
▁services	-6545
▁Interesse	-6546
▁getroffen	-6547
▁außergewöhn	-6548
esellschaften	-6549
▁Kurz	-6550
▁Life	-6551
▁gradu	-6552
▁gutes	-6553
▁fühlte	-6554
▁Zeitpunkt	-6555
▁challenges	-6556
▁immediately	-6557
▁neighborhood	-6558
▁Veränderungen	-6559
ibl	-6560
urm	-6561
▁Bis	-6562
▁ast	-6563
▁grü	-6564
▁jud	-6565
▁win	-6566
dings	-6567
hrten	-6568
▁guter	-6569
zugehen	-6570
▁abstra	-6571
▁helped	-6572
▁mehrere	-6573
▁Manchmal	-6574
▁dasselbe	-6575
▁Einkommen	-6576
▁Schönheit	-6577
uc	-6578
fel	-6579
over	-6580
▁Mir	-6581
gency	-6582
orted	-6583
▁Cong	-6584
▁rule	-6585
ildern	-6586
barkeit	-6587
▁Stunde	-6588
▁honest	-6589
▁income	-6590
▁unique	-6591
ervation	-6592
▁Telefon	-6593
1,	-6594
ieß	-6595
hnte	-6596
▁Big	-6597
arter	-6598
▁Chic	-6599
▁Drit	-6600
▁zero	-6601
▁whose	-6602
▁Ereign	-6603
▁effects	-6604
▁popular	-6605
▁Vorstell	-6606
▁engineering	-6607
▁Jahrhunderts	-6608
ih	-6609
hme	-6610
▁Dre	-6611
▁Neu	-6612
▁Prot	-6613
aurant	-6614
▁Think	-6615
▁Wesen	-6616
▁surve	-6617
▁flying	-6618
▁seines	-6619
▁various	-6620
▁electron	-6621
▁following	-6622
uhl	-6623
▁Arg	-6624
▁Mut	-6625
▁Amaz	-6626
▁blog	-6627
▁hart	-6628
▁race	-6629
anning	-6630
▁concl	-6631
▁erfor	-6632
▁radio	-6633
▁German	-6634
▁decide	-6635
▁shared	-6636
▁Journal	-6637
frastruct	-6638
▁Francisco	-6639
rt	-6640
rees	-6641
▁Con	-6642
▁Hum	-6643
▁Kol	-6644
▁Mär	-6645
masch	-6646
round	-6647
stück	-6648
▁From	-6649
▁Mart	-6650
▁jene	-6651
▁Ident	-6652
▁apply	-6653
▁Punkte	-6654
▁Zeiten	-6655
▁gewiss	-6656
▁selten	-6657
▁useful	-6658
▁Artikel	-6659
▁California	-6660
"-	-6661
0.	-6662
seh	-6663
öse	-6664
ypoth	-6665
▁Gewe	-6666
▁hinge	-6667
▁relev	-6668
▁voraus	-6669
dimension	-6670
▁condition	-6671
▁financial	-6672
▁societies	-6673
▁Institution	-6674
RI	-6675
urb	-6676
▁GP	-6677
erem	-6678
▁Hom	-6679
▁Öff	-6680
▁Unser	-6681
▁Kamera	-6682
▁Worten	-6683
gefunden	-6684
▁install	-6685
▁instance	-6686
Ge	-6687
für	-6688
aign	-6689
ammt	-6690
iles	-6691
▁Fen	-6692
alley	-6693
ustom	-6694
▁NASA	-6695
▁hous	-6696
▁laut	-6697
▁expand	-6698
▁Statist	-6699
ico	-6700
kam	-6701
brit	-6702
iete	-6703
eting	-6704
▁Auge	-6705
▁Quad	-6706
▁Haben	-6707
▁Tisch	-6708
▁telev	-6709
▁trade	-6710
standen	-6711
▁Polize	-6712
▁Teilen	-6713
▁Vision	-6714
▁Nigeria	-6715
▁ehrlich	-6716
chnologie	-6717
▁diseases	-6718
▁enormous	-6719
▁erinnere	-6720
▁nachhalt	-6721
▁schlechte	-6722
aste	-6723
pack	-6724
▁hyd	-6725
▁sad	-6726
Warum	-6727
▁Körp	-6728
▁worst	-6729
wendung	-6730
▁Videos	-6731
▁commit	-6732
▁forget	-6733
▁although	-6734
▁terrible	-6735
▁Schlüssel	-6736
▁vollständ	-6737
▁creativity	-6738
▁unglaubliche	-6739
▁Verantwortung	-6740
Er	-6741
Le	-6742
Te	-6743
üh	-6744
▁Aud	-6745
▁unc	-6746
essed	-6747
▁tiss	-6748
▁Jedes	-6749
▁raise	-6750
▁Finanz	-6751
▁Thomas	-6752
▁Tieren	-6753
▁nahmen	-6754
▁Projekte	-6755
▁schicken	-6756
▁Gefängnis	-6757
▁infrastruct	-6758
It	-6759
ners	-6760
▁End	-6761
▁wün	-6762
angel	-6763
endes	-6764
stütz	-6765
▁Grad	-6766
▁fuel	-6767
▁Werte	-6768
▁below	-6769
mission	-6770
▁Transp	-6771
▁accept	-6772
▁elektr	-6773
▁journal	-6774
▁possibly	-6775
▁ebenfalls	-6776
▁verkaufen	-6777
▁entreprene	-6778
2.	-6779
oh	-6780
wise	-6781
▁bio	-6782
▁bud	-6783
▁zug	-6784
hlung	-6785
▁Post	-6786
▁Text	-6787
▁YouT	-6788
▁dunk	-6789
▁isol	-6790
▁verme	-6791
ulieren	-6792
▁Bedürf	-6793
▁wählen	-6794
▁Chicago	-6795
▁Komplex	-6796
▁erfunden	-6797
▁üb	-6798
weil	-6799
▁Sam	-6800
ilien	-6801
selben	-6802
▁dauer	-6803
▁fällt	-6804
▁posit	-6805
▁print	-6806
gebracht	-6807
▁globale	-6808
▁Position	-6809
▁pressure	-6810
▁existiert	-6811
frastruktur	-6812
▁durchschnitt	-6813
▁Eigenschaften	-6814
▁aid	-6815
bewer	-6816
▁Band	-6817
▁blau	-6818
▁vict	-6819
▁Plast	-6820
▁Finger	-6821
▁Physik	-6822
▁anyway	-6823
▁effekt	-6824
▁Städten	-6825
▁YouTube	-6826
▁wunderv	-6827
▁jemandem	-6828
▁original	-6829
▁religion	-6830
▁behandeln	-6831
▁vergleich	-6832
▁Fortschritt	-6833
mel	-6834
esis	-6835
ifft	-6836
hlten	-6837
iated	-6838
ufact	-6839
▁hair	-6840
▁male	-6841
▁mitt	-6842
▁aware	-6843
▁slide	-6844
▁Freude	-6845
▁summer	-6846
▁supply	-6847
▁explore	-6848
▁gedacht	-6849
▁prevent	-6850
▁survive	-6851
▁unabhäng	-6852
▁Antworten	-6853
▁Intelligen	-6854
▁Leidenschaft	-6855
Ver	-6856
maß	-6857
val	-6858
▁75	-6859
räge	-6860
▁hom	-6861
ießen	-6862
ights	-6863
kraft	-6864
▁Hund	-6865
▁Mill	-6866
▁Great	-6867
▁Suche	-6868
▁assoc	-6869
isierte	-6870
zusagen	-6871
▁female	-6872
minister	-6873
▁Männern	-6874
▁answers	-6875
▁eigenes	-6876
▁geschah	-6877
▁Produkte	-6878
▁cultural	-6879
▁konzentrieren	-6880
oge	-6881
vit	-6882
reib	-6883
uing	-6884
wohn	-6885
▁unf	-6886
▁loss	-6887
▁Junge	-6888
▁metap	-6889
geführt	-6890
▁dramat	-6891
▁senten	-6892
▁improve	-6893
▁directly	-6894
▁profound	-6895
▁slightly	-6896
▁verrückt	-6897
▁relationships	-6898
MS	-6899
do	-6900
edy	-6901
iell	-6902
ikas	-6903
▁Tor	-6904
▁imm	-6905
▁äuß	-6906
anced	-6907
cribe	-6908
folge	-6909
gaben	-6910
gründ	-6911
odell	-6912
water	-6913
▁Many	-6914
▁base	-6915
▁dank	-6916
▁rede	-6917
▁echte	-6918
▁shock	-6919
▁Schutz	-6920
▁forces	-6921
▁Erstens	-6922
▁atmosph	-6923
▁trouble	-6924
▁Freunden	-6925
▁programs	-6926
▁überleben	-6927
▁colleagues	-6928
▁television	-6929
▁Kreativität	-6930
▁ök	-6931
tech	-6932
omant	-6933
▁Gang	-6934
▁boys	-6935
ierungs	-6936
▁Ahnung	-6937
▁Schlaf	-6938
▁beantw	-6939
▁frühen	-6940
▁purpose	-6941
▁capacity	-6942
▁Verfügung	-6943
▁understood	-6944
▁verbringen	-6945
How	-6946
▁2.	-6947
onie	-6948
▁Bon	-6949
▁drop	-6950
ennung	-6951
ologen	-6952
treten	-6953
▁analy	-6954
▁komme	-6955
▁offic	-6956
▁commer	-6957
▁lernte	-6958
▁target	-6959
▁central	-6960
▁algorith	-6961
▁Industrie	-6962
▁Materialien	-6963
▁99	-6964
üsse	-6965
▁Pil	-6966
▁ext	-6967
▁Nähe	-6968
▁paid	-6969
ochter	-6970
▁Insel	-6971
brechen	-6972
itionen	-6973
▁Herzen	-6974
▁Waffen	-6975
▁causes	-6976
▁kulture	-6977
▁Religion	-6978
▁wunderbar	-6979
lös	-6980
oßen	-6981
uber	-6982
▁194	-6983
▁Sat	-6984
▁bat	-6985
▁iPh	-6986
▁mid	-6987
▁vul	-6988
hilfe	-6989
stadt	-6990
▁hall	-6991
▁tens	-6992
▁agric	-6993
▁brilli	-6994
▁sobald	-6995
▁vorbei	-6996
▁öffnen	-6997
▁tremend	-6998
geschichte	-6999
▁industrial	-7000
bet	-7001
nam	-7002
geht	-7003
▁Wass	-7004
▁hole	-7005
▁synth	-7006
▁zeich	-7007
▁Region	-7008
▁destro	-7009
▁double	-7010
▁mostly	-7011
▁trifft	-7012
ographic	-7013
▁Kapital	-7014
▁angefangen	-7015
▁ermöglichen	-7016
▁Mö	-7017
ograp	-7018
orgung	-7019
▁hinzu	-7020
britann	-7021
ktionen	-7022
▁Manche	-7023
▁Wunder	-7024
▁frustr	-7025
▁report	-7026
▁states	-7027
▁Biologie	-7028
▁consequen	-7029
▁sustainable	-7030
elf	-7031
zul	-7032
ason	-7033
aven	-7034
▁Wid	-7035
raten	-7036
▁Mitt	-7037
▁erne	-7038
▁sick	-7039
▁unge	-7040
▁manip	-7041
▁spaces	-7042
▁erzeugt	-7043
▁schlimm	-7044
▁workers	-7045
▁gegangen	-7046
▁speaking	-7047
▁entstehen	-7048
▁published	-7049
▁experiments	-7050
▁temperature	-7051
Why	-7052
pre	-7053
ärm	-7054
▁Mos	-7055
▁fro	-7056
▁sal	-7057
aling	-7058
azine	-7059
▁hört	-7060
▁chair	-7061
▁Massen	-7062
▁Schiff	-7063
▁Schwar	-7064
▁Sommer	-7065
▁Street	-7066
▁fangen	-7067
ognitive	-7068
▁Zustand	-7069
▁helping	-7070
▁noticed	-7071
▁ursprün	-7072
▁Karriere	-7073
▁Überleben	-7074
▁Unterstütz	-7075
▁Gelegenheit	-7076
▁differences	-7077
▁Verbindungen	-7078
▁kontrollieren	-7079
▁&	-7080
anc	-7081
rot	-7082
izes	-7083
rian	-7084
▁Etw	-7085
▁Wol	-7086
▁hus	-7087
▁mix	-7088
cules	-7089
ichts	-7090
pping	-7091
▁Arme	-7092
▁Bein	-7093
▁Jobs	-7094
▁Lang	-7095
▁Rede	-7096
▁gene	-7097
▁calls	-7098
▁dance	-7099
▁häufig	-7100
▁Instead	-7101
▁Schrift	-7102
▁beeinflusst	-7103
▁communicate	-7104
▁infrastructure	-7105
col	-7106
zil	-7107
port	-7108
rect	-7109
▁Anw	-7110
icles	-7111
istry	-7112
oston	-7113
▁Denk	-7114
▁King	-7115
▁Abend	-7116
▁Colle	-7117
▁Kreis	-7118
ception	-7119
haltung	-7120
▁Farben	-7121
▁Schlag	-7122
▁Spitze	-7123
▁closer	-7124
▁intens	-7125
▁meters	-7126
▁vertra	-7127
▁Tochter	-7128
▁creates	-7129
▁evolved	-7130
▁spreche	-7131
▁surgery	-7132
▁campaign	-7133
▁negative	-7134
▁networks	-7135
▁Werkzeuge	-7136
▁reagieren	-7137
▁Gesundheits	-7138
▁Entwicklungsl	-7139
▁organizations	-7140
4,	-7141
deut	-7142
▁Tex	-7143
▁sou	-7144
rench	-7145
stieg	-7146
▁Iraq	-7147
▁Stan	-7148
▁Ther	-7149
▁heat	-7150
istenz	-7151
▁Zelle	-7152
▁frame	-7153
führung	-7154
ichtbar	-7155
▁Amazon	-7156
▁Ansatz	-7157
▁chines	-7158
▁Schluss	-7159
▁genutzt	-7160
▁kämpfen	-7161
▁markets	-7162
▁größeren	-7163
▁einzigart	-7164
▁experiences	-7165
▁herzustellen	-7166
▁Infrastruktur	-7167
gers	-7168
mell	-7169
odes	-7170
such	-7171
▁Beh	-7172
ampag	-7173
ergie	-7174
ibiot	-7175
äumen	-7176
▁Mach	-7177
▁lack	-7178
▁reve	-7179
▁Again	-7180
▁Micro	-7181
▁wider	-7182
▁Altern	-7183
▁Atlant	-7184
▁Online	-7185
▁oxygen	-7186
▁Vielfalt	-7187
▁begonnen	-7188
▁riesigen	-7189
▁geschafft	-7190
▁biological	-7191
dy	-7192
kn	-7193
erin	-7194
rize	-7195
▁Ext	-7196
▁dür	-7197
▁kor	-7198
weite	-7199
▁Erzä	-7200
▁conv	-7201
▁krie	-7202
▁stim	-7203
▁vast	-7204
fassen	-7205
▁dying	-7206
▁motor	-7207
▁trick	-7208
▁twice	-7209
▁Dienst	-7210
▁akzept	-7211
▁played	-7212
▁größere	-7213
▁streets	-7214
▁Ausdruck	-7215
▁scientist	-7216
▁Sauerstoff	-7217
▁erstaunlich	-7218
▁institution	-7219
▁politischen	-7220
term	-7221
▁Get	-7222
▁Mat	-7223
▁Sun	-7224
▁fat	-7225
▁plat	-7226
▁erwäh	-7227
▁shoot	-7228
▁Nehmen	-7229
▁highly	-7230
zeichnen	-7231
▁Knochen	-7232
▁atmosphere	-7233
▁aufgenommen	-7234
▁wichtigsten	-7235
urf	-7236
cise	-7237
fraid	-7238
isted	-7239
▁bein	-7240
▁ließ	-7241
▁Bäume	-7242
▁absch	-7243
▁adapt	-7244
▁missing	-7245
▁planets	-7246
▁Unterschiede	-7247
▁beeinflussen	-7248
▁23	-7249
▁Wä	-7250
aced	-7251
itär	-7252
onym	-7253
▁amb	-7254
ctive	-7255
ekten	-7256
hause	-7257
iffen	-7258
neten	-7259
ubble	-7260
▁Dort	-7261
▁Good	-7262
▁koll	-7263
wohner	-7264
▁Sport	-7265
▁Risiko	-7266
▁afraid	-7267
▁applic	-7268
▁custom	-7269
▁gather	-7270
▁verfüg	-7271
▁Gefühle	-7272
▁Klassen	-7273
▁präsent	-7274
▁stopped	-7275
▁Interess	-7276
▁manufact	-7277
▁surround	-7278
▁verantwort	-7279
▁od	-7280
bank	-7281
gypt	-7282
spra	-7283
uert	-7284
▁Pop	-7285
brauch	-7286
etzten	-7287
lieben	-7288
▁Wikip	-7289
▁assum	-7290
▁feels	-7291
▁photo	-7292
▁Center	-7293
▁active	-7294
▁bezahl	-7295
▁broken	-7296
▁speech	-7297
▁Angeles	-7298
▁Atmosph	-7299
industrie	-7300
▁brauchte	-7301
▁mountain	-7302
▁Verhaltens	-7303
▁Großbritann	-7304
▁2,	-7305
▁Hig	-7306
▁tax	-7307
akten	-7308
utsch	-7309
▁Adam	-7310
▁basis	-7311
▁parad	-7312
▁sogen	-7313
istisch	-7314
▁corner	-7315
▁Fenster	-7316
▁produced	-7317
▁Experimen	-7318
▁differently	-7319
▁Geschwindigkeit	-7320
gin	-7321
größ	-7322
lder	-7323
leun	-7324
stes	-7325
heben	-7326
mente	-7327
mmern	-7328
▁Wett	-7329
▁Opfer	-7330
▁Titel	-7331
▁fühlt	-7332
▁oppos	-7333
▁Boston	-7334
▁gotten	-7335
ollywood	-7336
▁notwend	-7337
▁bringing	-7338
▁inspired	-7339
▁politische	-7340
gas	-7341
ida	-7342
kur	-7343
zif	-7344
ulen	-7345
▁600	-7346
▁Gar	-7347
▁Lab	-7348
▁Les	-7349
idden	-7350
olden	-7351
▁Blog	-7352
▁More	-7353
▁flex	-7354
▁gift	-7355
▁wire	-7356
erecht	-7357
estens	-7358
imeter	-7359
umente	-7360
▁Paris	-7361
▁birds	-7362
▁fragt	-7363
▁rapid	-7364
▁Brazil	-7365
▁Privat	-7366
▁bought	-7367
ological	-7368
▁achieve	-7369
▁Phänomen	-7370
▁controll	-7371
▁daughter	-7372
▁Geschäfts	-7373
▁designers	-7374
▁Klimawandel	-7375
▁Kommunikation	-7376
▁communication	-7377
▁responsibility	-7378
holt	-7379
ogel	-7380
lecht	-7381
rical	-7382
▁Eins	-7383
▁Kore	-7384
▁krit	-7385
▁kürz	-7386
stände	-7387
▁Osten	-7388
▁hielt	-7389
▁rough	-7390
änderte	-7391
▁Rücken	-7392
▁Wunsch	-7393
▁nearly	-7394
▁reduce	-7395
▁Materie	-7396
▁endlich	-7397
▁extreme	-7398
▁seltsam	-7399
▁Insekten	-7400
▁Botschaft	-7401
▁diversity	-7402
▁efficient	-7403
▁conference	-7404
▁Durchschnitt	-7405
Un	-7406
Wenn	-7407
glie	-7408
frage	-7409
ratic	-7410
▁Jack	-7411
▁nütz	-7412
▁teen	-7413
▁seien	-7414
▁smell	-7415
auschen	-7416
▁10,000	-7417
▁easily	-7418
▁seemed	-7419
ulations	-7420
▁entlang	-7421
▁Soldaten	-7422
▁molecules	-7423
▁weiterhin	-7424
▁consciousness	-7425
mung	-7426
rupt	-7427
used	-7428
▁jün	-7429
bruch	-7430
▁Over	-7431
▁coff	-7432
schutz	-7433
▁auszu	-7434
▁Klasse	-7435
▁Norden	-7436
▁Thanks	-7437
▁satell	-7438
▁ancient	-7439
▁element	-7440
▁knowing	-7441
▁Korallen	-7442
▁studying	-7443
▁Wikipedia	-7444
▁Universums	-7445
▁Gesellschaften	-7446
kop	-7447
▁ut	-7448
eden	-7449
eler	-7450
rauch	-7451
right	-7452
volle	-7453
▁fühle	-7454
▁initi	-7455
▁Global	-7456
▁window	-7457
▁Begriff	-7458
▁degrees	-7459
▁dorthin	-7460
▁handeln	-7461
▁members	-7462
▁creatures	-7463
▁complexity	-7464
car	-7465
▁["	-7466
izen	-7467
lege	-7468
load	-7469
nden	-7470
stag	-7471
ware	-7472
▁nöt	-7473
▁tom	-7474
▁wis	-7475
alien	-7476
fälle	-7477
▁Holz	-7478
▁bomb	-7479
▁gilt	-7480
▁prep	-7481
▁sowie	-7482
▁Nichts	-7483
▁eating	-7484
▁iPhone	-7485
▁langen	-7486
▁Einsatz	-7487
▁Neuronen	-7488
▁Werkzeug	-7489
▁erlauben	-7490
▁stellten	-7491
▁Kilometer	-7492
▁produziert	-7493
▁significant	-7494
abt	-7495
bin	-7496
die	-7497
ruf	-7498
▁Las	-7499
▁afr	-7500
entle	-7501
house	-7502
ließt	-7503
light	-7504
setzt	-7505
▁Ganz	-7506
▁rare	-7507
▁tele	-7508
izität	-7509
▁Peter	-7510
▁Todes	-7511
▁kenne	-7512
▁shift	-7513
▁schaut	-7514
ribution	-7515
▁UN	-7516
ober	-7517
▁Lat	-7518
antas	-7519
mögen	-7520
▁Loch	-7521
▁gele	-7522
▁none	-7523
anging	-7524
gramme	-7525
▁legen	-7526
otograf	-7527
▁engage	-7528
▁shares	-7529
▁switch	-7530
▁ändert	-7531
▁Diskuss	-7532
▁erstellen	-7533
1.	-7534
hö	-7535
opt	-7536
uum	-7537
kung	-7538
▁GPS	-7539
▁fle	-7540
▁Glas	-7541
▁Kein	-7542
▁bees	-7543
uments	-7544
mutlich	-7545
ssystem	-7546
zubauen	-7547
änglich	-7548
▁genome	-7549
ationale	-7550
▁College	-7551
▁dagegen	-7552
erspektive	-7553
▁behandelt	-7554
▁einfacher	-7555
▁überzeugen	-7556
An	-7557
bie	-7558
kle	-7559
mmer	-7560
uild	-7561
▁20.	-7562
andid	-7563
based	-7564
haben	-7565
▁Seit	-7566
▁Szen	-7567
▁trag	-7568
gebaut	-7569
▁Beruf	-7570
▁cheap	-7571
▁email	-7572
▁neuer	-7573
▁weird	-7574
▁kostet	-7575
▁Ameisen	-7576
▁alleine	-7577
▁perfekt	-7578
▁entsteht	-7579
▁spending	-7580
▁ecosystem	-7581
▁philosoph	-7582
▁Temperatur	-7583
ola	-7584
angt	-7585
chem	-7586
king	-7587
üben	-7588
▁Spr	-7589
ätsel	-7590
▁Take	-7591
▁join	-7592
ording	-7593
▁Stein	-7594
▁gaben	-7595
▁künst	-7596
▁nehme	-7597
stronom	-7598
▁Middle	-7599
▁ganzes	-7600
▁physic	-7601
▁therap	-7602
▁vulner	-7603
▁Plastik	-7604
▁Version	-7605
▁Zentrum	-7606
▁identity	-7607
▁Präsident	-7608
▁erforschen	-7609
▁imagination	-7610
▁Zusammenarbeit	-7611
ded	-7612
orb	-7613
ses	-7614
cell	-7615
ieso	-7616
teln	-7617
urop	-7618
▁san	-7619
asion	-7620
markt	-7621
▁Babys	-7622
▁agree	-7623
▁buchst	-7624
▁demand	-7625
▁sexual	-7626
isierten	-7627
▁devices	-7628
▁entschied	-7629
▁Komplexität	-7630
▁Zusammenhang	-7631
het	-7632
oom	-7633
orgt	-7634
▁Kop	-7635
▁Sen	-7636
▁Wal	-7637
losen	-7638
▁Sche	-7639
▁disk	-7640
▁1,000	-7641
▁Virus	-7642
▁Ziele	-7643
▁giant	-7644
▁visit	-7645
▁Karten	-7646
▁photos	-7647
▁presen	-7648
▁begeister	-7649
▁benötigen	-7650
▁landscape	-7651
▁Ausbildung	-7652
▁fascinating	-7653
▁Unterstützung	-7654
cel	-7655
det	-7656
▁Feld	-7657
▁Heil	-7658
▁Proz	-7659
▁Trad	-7660
▁boat	-7661
▁darf	-7662
▁enth	-7663
aining	-7664
formen	-7665
ährung	-7666
▁Inform	-7667
▁Jugend	-7668
▁Kohlen	-7669
▁Result	-7670
▁effort	-7671
▁epidem	-7672
▁erhält	-7673
▁lights	-7674
▁Zeichen	-7675
▁hearing	-7676
▁sharing	-7677
▁tremendous	-7678
▁Intelligenz	-7679
▁ep	-7680
▁sü	-7681
▁dom	-7682
▁unw	-7683
usive	-7684
▁Tanz	-7685
▁bloß	-7686
▁hero	-7687
▁Typen	-7688
▁fully	-7689
▁gross	-7690
▁cooper	-7691
istische	-7692
▁focused	-7693
▁verkauft	-7694
▁interpret	-7695
▁verursacht	-7696
▁opportunities	-7697
▁CE	-7698
verb	-7699
ügel	-7700
▁pig	-7701
beweg	-7702
icket	-7703
▁heav	-7704
▁vari	-7705
afrika	-7706
▁avoid	-7707
▁davor	-7708
▁pleas	-7709
▁unbed	-7710
▁batter	-7711
▁breast	-7712
▁einsch	-7713
▁mission	-7714
▁Aufgaben	-7715
▁addition	-7716
▁Vertrauen	-7717
▁commercial	-7718
▁Bedingungen	-7719
▁investieren	-7720
la	-7721
500	-7722
van	-7723
▁eg	-7724
reci	-7725
▁saß	-7726
verse	-7727
▁Satz	-7728
▁poem	-7729
wirken	-7730
▁Autor	-7731
▁Kontakt	-7732
▁Science	-7733
▁Sekunde	-7734
▁forever	-7735
▁schafft	-7736
▁betrifft	-7737
▁Professor	-7738
▁überzeugt	-7739
▁entwickelten	-7740
▁kommunizieren	-7741
hung	-7742
obel	-7743
▁Zur	-7744
quenz	-7745
swert	-7746
ugier	-7747
▁Jede	-7748
▁Klima	-7749
▁enter	-7750
zeichen	-7751
▁Kunden	-7752
▁victim	-7753
entlicht	-7754
▁artists	-7755
▁turning	-7756
▁Fernsehen	-7757
▁Depression	-7758
omm	-7759
änn	-7760
▁BG	-7761
cles	-7762
▁Rem	-7763
▁Golf	-7764
▁recy	-7765
▁tour	-7766
entwick	-7767
▁Sterne	-7768
▁Wandel	-7769
▁klingt	-7770
▁Objekte	-7771
▁letztes	-7772
▁umgehen	-7773
forschung	-7774
▁gewonnen	-7775
▁modernen	-7776
▁weiteres	-7777
▁Identität	-7778
▁Lieblings	-7779
▁Atmosphäre	-7780
▁phenomenon	-7781
ays	-7782
emb	-7783
far	-7784
pos	-7785
tle	-7786
angs	-7787
unte	-7788
▁Air	-7789
▁Tun	-7790
▁Gest	-7791
▁erfü	-7792
▁gros	-7793
▁stem	-7794
▁zent	-7795
▁disor	-7796
▁könnt	-7797
klärung	-7798
▁desert	-7799
▁passed	-7800
▁streng	-7801
▁Niemand	-7802
▁failure	-7803
▁moments	-7804
▁Actually	-7805
▁Qualität	-7806
▁alternative	-7807
igur	-7808
know	-7809
spir	-7810
▁Lar	-7811
▁Mac	-7812
igend	-7813
ocken	-7814
print	-7815
▁Müll	-7816
▁core	-7817
▁sinn	-7818
führer	-7819
▁Statt	-7820
▁bread	-7821
▁digit	-7822
▁simpl	-7823
ivalent	-7824
▁coffee	-7825
▁fairly	-7826
▁infect	-7827
▁symmet	-7828
▁Schwier	-7829
▁Untersuch	-7830
▁verbreitet	-7831
▁beschreiben	-7832
▁veröffentlicht	-7833
iefe	-7834
üren	-7835
▁Bio	-7836
▁Haw	-7837
elesc	-7838
krebs	-7839
▁Fest	-7840
▁Volk	-7841
▁fash	-7842
▁habt	-7843
▁ancest	-7844
▁aspect	-7845
▁brings	-7846
▁leider	-7847
▁resist	-7848
zwischen	-7849
▁Nahrungs	-7850
▁erinnert	-7851
▁Institute	-7852
▁gestalten	-7853
▁religious	-7854
▁unbedingt	-7855
▁possibility	-7856
6,	-7857
ias	-7858
ros	-7859
äbe	-7860
▁Ho	-7861
ansen	-7862
schte	-7863
urcht	-7864
▁Fach	-7865
▁Hack	-7866
isible	-7867
▁Higgs	-7868
▁effiz	-7869
▁Sozial	-7870
▁bitten	-7871
▁clever	-7872
▁dreams	-7873
▁sculpt	-7874
▁British	-7875
▁Gesetze	-7876
▁buchstä	-7877
▁farmers	-7878
▁geführt	-7879
▁steigen	-7880
▁Gemeinde	-7881
▁benefits	-7882
▁leadership	-7883
▁structures	-7884
▁Hintergrund	-7885
▁Großbritannien	-7886
na	-7887
aos	-7888
ety	-7889
Okay	-7890
aler	-7891
hört	-7892
iche	-7893
lymp	-7894
▁Bur	-7895
appen	-7896
athan	-7897
etwas	-7898
krieg	-7899
▁Pers	-7900
▁puzz	-7901
abetes	-7902
▁Child	-7903
▁helps	-7904
▁lucky	-7905
▁party	-7906
ography	-7907
▁events	-7908
▁lautet	-7909
▁Schmerz	-7910
▁virtual	-7911
▁accident	-7912
▁deutlich	-7913
▁metaphor	-7914
▁opposite	-7915
▁beschäftigt	-7916
▁Landwirtschaft	-7917
▁Organisationen	-7918
oe	-7919
Sie	-7920
▁Ac	-7921
renz	-7922
▁Ros	-7923
▁gun	-7924
▁hau	-7925
▁zuk	-7926
ungsf	-7927
▁exer	-7928
▁mort	-7929
▁note	-7930
antage	-7931
▁Affen	-7932
▁Handy	-7933
▁Stoff	-7934
▁spiel	-7935
▁selber	-7936
▁signal	-7937
▁Einfach	-7938
▁counter	-7939
▁foreign	-7940
▁Zweitens	-7941
▁partners	-7942
▁wunderschön	-7943
▁herausgefunden	-7944
osis	-7945
aters	-7946
werte	-7947
zweif	-7948
▁Sein	-7949
▁eure	-7950
ördern	-7951
▁Basis	-7952
▁Zusch	-7953
▁mouth	-7954
▁Fällen	-7955
▁Schimp	-7956
▁Spiele	-7957
▁gentle	-7958
▁yellow	-7959
▁Patient	-7960
▁Spielen	-7961
▁despite	-7962
ification	-7963
ständlich	-7964
▁Kindheit	-7965
▁brilliant	-7966
▁definition	-7967
PA	-7968
ka	-7969
izz	-7970
pfl	-7971
ris	-7972
tels	-7973
well	-7974
▁joy	-7975
▁2008	-7976
▁Abst	-7977
▁Fund	-7978
▁Stär	-7979
▁nutz	-7980
▁ship	-7981
▁Vogel	-7982
▁names	-7983
▁tolle	-7984
▁Martin	-7985
▁gewöhn	-7986
▁glaubt	-7987
▁oceans	-7988
▁balance	-7989
▁leading	-7990
▁rechten	-7991
▁Forscher	-7992
▁dieselbe	-7993
▁verdienen	-7994
▁vermutlich	-7995
▁vollkommen	-7996
▁250	-7997
chnen	-7998
frist	-7999
halte	-8000
schlä	-8001
zelle	-8002
▁Kann	-8003
▁Ghana	-8004
▁Masse	-8005
▁prior	-8006
▁tough	-8007
istence	-8008
▁Mexico	-8009
▁easier	-8010
▁sorgen	-8011
▁zukünft	-8012
▁describe	-8013
▁eingesch	-8014
▁wiederum	-8015
▁Konferenz	-8016
▁particles	-8017
dimensional	-8018
2-	-8019
Don	-8020
▁27	-8021
▁Wü	-8022
soft	-8023
tert	-8024
anner	-8025
etten	-8026
hnten	-8027
iefen	-8028
▁Drei	-8029
▁ausl	-8030
▁held	-8031
▁spot	-8032
ending	-8033
fallen	-8034
kehren	-8035
▁Anges	-8036
▁Liter	-8037
▁Willi	-8038
▁coast	-8039
zusehen	-8040
▁Nutzen	-8041
▁Valley	-8042
▁drehen	-8043
▁magnet	-8044
▁notion	-8045
▁raised	-8046
▁schöne	-8047
▁verwir	-8048
▁Polizei	-8049
▁anderem	-8050
▁fashion	-8051
▁figured	-8052
▁regular	-8053
▁stecken	-8054
▁weapons	-8055
istischen	-8056
▁Großteil	-8057
▁außerdem	-8058
▁erwartet	-8059
▁rational	-8060
▁übertragen	-8061
ani	-8062
bur	-8063
iop	-8064
▁Vö	-8065
emen	-8066
fält	-8067
pper	-8068
▁tox	-8069
▁jung	-8070
▁magn	-8071
▁repe	-8072
oppelt	-8073
▁Laden	-8074
▁Mobil	-8075
▁condu	-8076
▁sorry	-8077
gewicht	-8078
setzung	-8079
wechsel	-8080
▁Heimat	-8081
▁Satell	-8082
▁benötigt	-8083
▁besitzen	-8084
▁entirely	-8085
▁Problemen	-8086
▁suffering	-8087
▁responsible	-8088
▁durchgeführt	-8089
60	-8090
ua	-8091
apie	-8092
phen	-8093
stab	-8094
▁Cam	-8095
▁usw	-8096
eline	-8097
▁Asia	-8098
▁Graf	-8099
▁Lern	-8100
▁Open	-8101
▁abzu	-8102
▁mamm	-8103
▁mill	-8104
▁wood	-8105
idents	-8106
▁Obama	-8107
▁bound	-8108
▁Fische	-8109
▁French	-8110
▁origin	-8111
▁tissue	-8112
▁definit	-8113
▁require	-8114
▁bezahlen	-8115
▁importantly	-8116
▁buchstäblich	-8117
ky	-8118
aks	-8119
iox	-8120
ünf	-8121
This	-8122
cked	-8123
vity	-8124
▁Hil	-8125
▁lat	-8126
cting	-8127
▁Fabr	-8128
▁edge	-8129
jekten	-8130
▁Sorgen	-8131
▁haupts	-8132
▁hinweg	-8133
▁master	-8134
▁steckt	-8135
▁werfen	-8136
▁Bildern	-8137
▁Gründen	-8138
▁Mission	-8139
▁derzeit	-8140
▁fragten	-8141
ungskraft	-8142
▁billions	-8143
▁document	-8144
▁exponent	-8145
▁childhood	-8146
3,	-8147
Se	-8148
itzt	-8149
rale	-8150
▁Jer	-8151
▁Tur	-8152
▁shr	-8153
asche	-8154
bling	-8155
▁Janu	-8156
▁Verk	-8157
▁seed	-8158
▁vorh	-8159
▁Beine	-8160
▁Keine	-8161
▁claim	-8162
▁faith	-8163
▁sitzt	-8164
▁wirst	-8165
▁Stress	-8166
▁Themen	-8167
▁Zuerst	-8168
▁antwor	-8169
▁deeply	-8170
▁erstes	-8171
▁Gewicht	-8172
▁However	-8173
▁appreci	-8174
▁correct	-8175
▁identif	-8176
▁European	-8177
▁distance	-8178
▁previous	-8179
▁Milliarde	-8180
▁bestimmen	-8181
▁Bildschirm	-8182
▁natürliche	-8183
▁sicherlich	-8184
▁verwandeln	-8185
▁öffentlich	-8186
▁öffentliche	-8187
di	-8188
anst	-8189
ibel	-8190
ords	-8191
ties	-8192
▁Pra	-8193
▁Boot	-8194
▁Brot	-8195
▁accur	-8196
▁dreht	-8197
▁hohen	-8198
▁laugh	-8199
▁wohin	-8200
▁Gefahr	-8201
▁charge	-8202
▁lesson	-8203
richtung	-8204
▁Drittel	-8205
▁Modelle	-8206
▁kümmern	-8207
▁shouldn	-8208
▁täglich	-8209
▁elements	-8210
▁einsetzen	-8211
▁mindestens	-8212
üp	-8213
bas	-8214
iban	-8215
ötet	-8216
▁dur	-8217
agers	-8218
ckten	-8219
laden	-8220
▁Inst	-8221
▁Last	-8222
▁host	-8223
▁hung	-8224
ighten	-8225
inhalb	-8226
nissen	-8227
▁Egypt	-8228
▁Kaffe	-8229
▁grass	-8230
▁indic	-8231
▁proud	-8232
oration	-8233
▁bridge	-8234
▁dürfen	-8235
▁remote	-8236
▁versus	-8237
ifically	-8238
▁Führung	-8239
▁contact	-8240
▁matters	-8241
▁relevant	-8242
▁zufällig	-8243
inosaurier	-8244
▁Sometimes	-8245
▁entwerfen	-8246
▁Forschungs	-8247
▁necessarily	-8248
▁Lebensmittel	-8249
xis	-8250
▁Ox	-8251
eine	-8252
iest	-8253
onds	-8254
vere	-8255
▁Ass	-8256
▁Dra	-8257
▁Emp	-8258
▁Log	-8259
▁ban	-8260
▁kit	-8261
ingly	-8262
▁Sehr	-8263
▁anti	-8264
▁forg	-8265
mother	-8266
zeiten	-8267
▁Haiti	-8268
▁Treib	-8269
▁leads	-8270
meister	-8271
▁adults	-8272
▁corpor	-8273
▁pounds	-8274
▁Kontext	-8275
▁Verkehr	-8276
▁concent	-8277
▁illegal	-8278
▁insects	-8279
▁kompliz	-8280
▁gelangen	-8281
▁sozusagen	-8282
▁background	-8283
▁II	-8284
▁ru	-8285
gern	-8286
ifen	-8287
pted	-8288
sens	-8289
unkl	-8290
▁Ach	-8291
▁Did	-8292
▁Mad	-8293
▁mor	-8294
▁pet	-8295
chern	-8296
etter	-8297
sagen	-8298
▁Irak	-8299
▁Link	-8300
▁emot	-8301
▁halb	-8302
▁iron	-8303
▁plus	-8304
laufen	-8305
pected	-8306
▁hängt	-8307
▁quote	-8308
▁Island	-8309
▁opened	-8310
▁romant	-8311
jährigen	-8312
▁Wichtig	-8313
▁abgesch	-8314
▁ausgest	-8315
▁studied	-8316
▁Kaliforn	-8317
▁scheinen	-8318
▁tausende	-8319
▁Microsoft	-8320
▁allgemein	-8321
▁necessary	-8322
▁repräsent	-8323
▁Strukturen	-8324
▁ultimately	-8325
▁Öffentlich	-8326
▁competition	-8327
Du	-8328
ita	-8329
ota	-8330
oler	-8331
▁Inn	-8332
▁Sar	-8333
▁dou	-8334
esign	-8335
fisch	-8336
▁bird	-8337
▁läch	-8338
ulated	-8339
▁Falls	-8340
▁Staat	-8341
▁eröff	-8342
▁offer	-8343
sichtig	-8344
▁General	-8345
▁holding	-8346
▁succeed	-8347
ibilities	-8348
ikanische	-8349
▁Bildungs	-8350
▁Teilchen	-8351
▁designer	-8352
▁fighting	-8353
▁discovery	-8354
▁interagieren	-8355
▁Institutionen	-8356
.'	-8357
arr	-8358
gro	-8359
▁Kä	-8360
care	-8361
▁daß	-8362
▁mig	-8363
icted	-8364
itete	-8365
ulous	-8366
▁Jeff	-8367
▁Very	-8368
tended	-8369
▁compl	-8370
▁stolz	-8371
▁töten	-8372
▁wheel	-8373
▁Änder	-8374
▁Geräte	-8375
▁Rahmen	-8376
▁beteil	-8377
▁colors	-8378
▁convin	-8379
▁failed	-8380
▁flight	-8381
▁lieber	-8382
▁religi	-8383
▁Leistung	-8384
▁Sprachen	-8385
▁Wahrnehm	-8386
▁separate	-8387
▁Erinnerung	-8388
▁investment	-8389
len	-8390
athy	-8391
ilde	-8392
roph	-8393
illed	-8394
▁Führ	-8395
▁Once	-8396
▁Sind	-8397
▁auth	-8398
▁pair	-8399
▁Carol	-8400
▁Seine	-8401
▁broad	-8402
▁cloud	-8403
▁gebra	-8404
gesehen	-8405
steller	-8406
▁hidden	-8407
▁sector	-8408
▁wächst	-8409
▁falsche	-8410
▁traffic	-8411
▁Konflikt	-8412
▁Charakter	-8413
▁verfolgen	-8414
esentlichen	-8415
▁gefährlich	-8416
▁irgendwann	-8417
▁vollständig	-8418
Der	-8419
ipe	-8420
apse	-8421
wide	-8422
▁Bob	-8423
▁Deb	-8424
▁Kal	-8425
▁reb	-8426
ffekt	-8427
isher	-8428
▁Metap	-8429
atively	-8430
jährige	-8431
▁aussch	-8432
ausenden	-8433
▁husband	-8434
▁believed	-8435
▁besseren	-8436
▁intellect	-8437
▁verhindern	-8438
▁wunderbare	-8439
▁überrascht	-8440
5.	-8441
enty	-8442
icke	-8443
oret	-8444
▁Tim	-8445
▁pun	-8446
▁ter	-8447
eared	-8448
▁Arch	-8449
▁Chir	-8450
▁Eing	-8451
▁Maus	-8452
▁purs	-8453
atoren	-8454
▁Solar	-8455
▁embra	-8456
▁exhib	-8457
▁faces	-8458
▁river	-8459
▁stuck	-8460
▁Mechan	-8461
▁contra	-8462
▁dollar	-8463
▁narrat	-8464
▁Emotion	-8465
▁destroy	-8466
▁related	-8467
▁platform	-8468
▁surprise	-8469
▁weiteren	-8470
▁influence	-8471
▁schließen	-8472
▁professional	-8473
▁möglicherweise	-8474
Ar	-8475
öpf	-8476
▁Sy	-8477
kton	-8478
▁Cor	-8479
▁Mod	-8480
hafte	-8481
uries	-8482
▁1950	-8483
ilosop	-8484
werten	-8485
▁Außen	-8486
▁mouse	-8487
▁moves	-8488
▁newsp	-8489
▁truck	-8490
▁weder	-8491
ampagne	-8492
▁erweit	-8493
▁finanz	-8494
▁letter	-8495
▁testen	-8496
▁nächstes	-8497
▁zunehmen	-8498
▁Gegenteil	-8499
▁concerned	-8500
▁gegenseit	-8501
▁depression	-8502
▁überraschen	-8503
▁unfortunately	-8504
AR	-8505
tr	-8506
olph	-8507
prob	-8508
teid	-8509
▁Law	-8510
ausch	-8511
inkel	-8512
utzer	-8513
▁Bett	-8514
▁Sing	-8515
▁lies	-8516
itness	-8517
▁Genom	-8518
▁click	-8519
▁krank	-8520
▁weiss	-8521
▁Häuser	-8522
▁Nation	-8523
▁caught	-8524
▁getötet	-8525
▁illustr	-8526
▁leaving	-8527
▁finanzie	-8528
▁independ	-8529
▁president	-8530
▁Kohlenstoff	-8531
▁letztendlich	-8532
rol	-8533
set	-8534
▁DH	-8535
geln	-8536
sinn	-8537
udes	-8538
wahl	-8539
▁Jon	-8540
▁Nan	-8541
▁Off	-8542
▁Pan	-8543
arent	-8544
idung	-8545
orrow	-8546
▁Ecke	-8547
▁Fünf	-8548
▁myth	-8549
▁Apple	-8550
▁Filme	-8551
▁Jungs	-8552
▁Mount	-8553
▁Smith	-8554
▁begeg	-8555
▁crash	-8556
▁walls	-8557
ometers	-8558
ächtnis	-8559
▁bieten	-8560
▁degree	-8561
▁detail	-8562
▁kurzen	-8563
▁mitten	-8564
▁wisdom	-8565
uationen	-8566
▁acceler	-8567
▁benefit	-8568
▁justice	-8569
▁Außerdem	-8570
▁Galaxien	-8571
▁Verstand	-8572
▁prototyp	-8573
▁verbracht	-8574
möglichkeit	-8575
▁begeistert	-8576
▁university	-8577
▁hauptsächlich	-8578
igm	-8579
xim	-8580
best	-8581
läuf	-8582
prof	-8583
sing	-8584
yram	-8585
▁Aug	-8586
ialog	-8587
▁Code	-8588
▁Frem	-8589
▁Have	-8590
▁Manh	-8591
▁arch	-8592
▁exch	-8593
▁hate	-8594
▁weib	-8595
iminal	-8596
▁Defin	-8597
▁Motor	-8598
▁alter	-8599
▁homes	-8600
▁ideal	-8601
▁noise	-8602
issions	-8603
▁begins	-8604
▁gesund	-8605
▁parent	-8606
▁slowly	-8607
▁Fleisch	-8608
▁sequence	-8609
▁collective	-8610
▁eingesetzt	-8611
ädt	-8612
eper	-8613
wegs	-8614
ößen	-8615
▁Akt	-8616
▁cro	-8617
amour	-8618
inson	-8619
ippen	-8620
riage	-8621
▁TEDx	-8622
▁band	-8623
▁Kohle	-8624
▁anges	-8625
▁angew	-8626
▁argue	-8627
▁halte	-8628
▁paint	-8629
▁resol	-8630
▁setzt	-8631
hältnis	-8632
▁Bauern	-8633
▁Rätsel	-8634
▁garden	-8635
esterday	-8636
▁protein	-8637
▁creation	-8638
▁strategy	-8639
▁principles	-8640
▁Dinosaurier	-8641
▁mathematics	-8642
▁interessieren	-8643
Talk	-8644
oben	-8645
▁tit	-8646
▁tue	-8647
▁ält	-8648
auern	-8649
itzer	-8650
ordin	-8651
▁Bras	-8652
▁ants	-8653
igsten	-8654
wissen	-8655
▁Dabei	-8656
▁Spekt	-8657
▁coral	-8658
▁equal	-8659
▁kurze	-8660
▁Meilen	-8661
▁expert	-8662
▁phones	-8663
▁Stimmen	-8664
▁Verletz	-8665
▁capable	-8666
▁Elektron	-8667
▁Experten	-8668
▁Gespräch	-8669
▁Stanford	-8670
▁compared	-8671
▁emotions	-8672
▁everyday	-8673
▁fotograf	-8674
▁investig	-8675
▁strength	-8676
richtungen	-8677
▁Katastrop	-8678
▁vorhanden	-8679
▁constantly	-8680
▁wichtigste	-8681
▁Öffentlichkeit	-8682
Os	-8683
läss	-8684
▁Fel	-8685
▁sac	-8686
▁Flor	-8687
▁bone	-8688
▁flie	-8689
▁hohe	-8690
▁moon	-8691
▁seat	-8692
heimer	-8693
hrough	-8694
▁Elektr	-8695
▁Gewebe	-8696
▁Republ	-8697
▁closed	-8698
▁deinen	-8699
▁gehabt	-8700
▁reward	-8701
▁thinks	-8702
illionen	-8703
maschine	-8704
▁basiert	-8705
▁bemerkt	-8706
▁display	-8707
▁reprodu	-8708
▁typical	-8709
▁Standard	-8710
▁Aktivität	-8711
▁invisible	-8712
▁versuchten	-8713
▁amerikanische	-8714
aßen	-8715
bahn	-8716
▁Hal	-8717
▁Nar	-8718
▁Rat	-8719
▁Sur	-8720
▁era	-8721
▁kap	-8722
▁prä	-8723
allel	-8724
asten	-8725
krank	-8726
letzt	-8727
pielt	-8728
ropri	-8729
unken	-8730
▁Beob	-8731
▁Bush	-8732
▁Lied	-8733
▁Phot	-8734
agiert	-8735
weiten	-8736
▁Brenn	-8737
▁Stift	-8738
▁hyper	-8739
▁nutzt	-8740
▁starb	-8741
▁budget	-8742
▁manage	-8743
▁museum	-8744
▁Deutsch	-8745
▁gewisse	-8746
▁managed	-8747
▁quantum	-8748
▁trained	-8749
▁feedback	-8750
▁majority	-8751
▁disappear	-8752
▁engineers	-8753
▁interaction	-8754
▁civilization	-8755
ko	-8756
yer	-8757
anth	-8758
otic	-8759
▁bie	-8760
▁emb	-8761
▁fab	-8762
andem	-8763
geber	-8764
ischt	-8765
owers	-8766
▁Rock	-8767
▁Schn	-8768
▁opin	-8769
▁Count	-8770
▁Folge	-8771
▁frage	-8772
▁grown	-8773
▁polic	-8774
▁reform	-8775
▁factory	-8776
▁volunte	-8777
▁wenigen	-8778
▁Algorith	-8779
▁finished	-8780
▁described	-8781
▁operating	-8782
▁organisms	-8783
▁otherwise	-8784
▁Unternehmer	-8785
obe	-8786
rip	-8787
uel	-8788
olit	-8789
ynth	-8790
▁Ehe	-8791
▁Ill	-8792
▁row	-8793
alent	-8794
apers	-8795
ength	-8796
fahrt	-8797
macht	-8798
throp	-8799
ängst	-8800
▁Dunk	-8801
▁Kapit	-8802
▁Nobel	-8803
▁Start	-8804
▁lebte	-8805
ributed	-8806
▁Händen	-8807
▁sister	-8808
▁Project	-8809
▁einiger	-8810
▁schönen	-8811
zubringen	-8812
▁followed	-8813
▁advantage	-8814
▁classroom	-8815
▁entworfen	-8816
▁praktisch	-8817
▁verantwortlich	-8818
▁unterschiedlich	-8819
If	-8820
Nun	-8821
▁ju	-8822
alog	-8823
aret	-8824
loss	-8825
▁21.	-8826
▁Ins	-8827
▁spl	-8828
▁ten	-8829
craft	-8830
ipped	-8831
known	-8832
▁Dere	-8833
▁aufw	-8834
▁Laufe	-8835
▁climb	-8836
▁klass	-8837
▁surge	-8838
▁attach	-8839
▁desire	-8840
▁erster	-8841
▁gering	-8842
▁paying	-8843
▁toward	-8844
▁Militär	-8845
▁erzähle	-8846
▁worried	-8847
▁normalen	-8848
▁Erkenntnis	-8849
▁untersucht	-8850
▁Experimente	-8851
▁Interaktion	-8852
▁Schimpansen	-8853
cil	-8854
hte	-8855
ardo	-8856
inkt	-8857
▁Ans	-8858
▁Dok	-8859
drück	-8860
scher	-8861
uster	-8862
▁Mund	-8863
▁gäbe	-8864
▁king	-8865
▁meat	-8866
ischem	-8867
▁Olymp	-8868
▁brief	-8869
▁somit	-8870
▁users	-8871
▁nannte	-8872
▁stelle	-8873
▁Manhatt	-8874
▁artific	-8875
önlichkeit	-8876
▁perfectly	-8877
▁wichtigen	-8878
▁businesses	-8879
▁Perspektive	-8880
▁beantworten	-8881
▁consumption	-8882
▁unterscheiden	-8883
inc	-8884
▁Ug	-8885
aped	-8886
gabe	-8887
iate	-8888
keln	-8889
▁Nov	-8890
adies	-8891
agram	-8892
aming	-8893
▁Star	-8894
▁earn	-8895
▁herr	-8896
▁roof	-8897
▁Found	-8898
▁Trotz	-8899
▁Zeich	-8900
▁holen	-8901
▁kennt	-8902
▁verbl	-8903
uations	-8904
▁Folgen	-8905
▁Toilet	-8906
▁dauert	-8907
▁finger	-8908
▁verein	-8909
▁meistens	-8910
▁Australia	-8911
▁surprised	-8912
▁arbeiteten	-8913
▁Kalifornien	-8914
▁irgendetwas	-8915
▁kompliziert	-8916
NS	-8917
har	-8918
▁65	-8919
aked	-8920
pass	-8921
▁Gas	-8922
▁Rot	-8923
▁ton	-8924
acher	-8925
rippe	-8926
▁hasn	-8927
▁puts	-8928
▁schm	-8929
▁wear	-8930
▁whom	-8931
schule	-8932
uliert	-8933
▁Beste	-8934
▁Neben	-8935
▁Texas	-8936
▁Three	-8937
▁immun	-8938
▁lernt	-8939
▁veget	-8940
ystemen	-8941
▁Haufen	-8942
▁bright	-8943
▁harder	-8944
▁Gehirne	-8945
▁dennoch	-8946
▁empower	-8947
▁Audience	-8948
▁Nationen	-8949
▁gehalten	-8950
▁hunderte	-8951
▁Wettbewer	-8952
▁schlimmer	-8953
▁allerdings	-8954
▁entstanden	-8955
4.	-8956
han	-8957
hmt	-8958
üst	-8959
▁Cy	-8960
▁La	-8961
aled	-8962
osion	-8963
place	-8964
▁2007	-8965
▁Does	-8966
▁Vide	-8967
▁zeit	-8968
immung	-8969
stream	-8970
▁Innen	-8971
▁Klang	-8972
▁Momen	-8973
▁Radio	-8974
▁contr	-8975
▁eleph	-8976
▁heads	-8977
▁quiet	-8978
▁wahre	-8979
▁Mütter	-8980
▁Planet	-8981
▁Zimmer	-8982
▁leader	-8983
▁Elektro	-8984
▁Gedanke	-8985
▁weather	-8986
blichkeit	-8987
▁galaxies	-8988
▁magazine	-8989
▁soldiers	-8990
▁Folgendes	-8991
▁Politiker	-8992
▁currently	-8993
▁languages	-8994
▁Individuen	-8995
▁Landschaft	-8996
▁beeindruck	-8997
▁existieren	-8998
ete	-8999
nel	-9000
▁Ap	-9001
cast	-9002
iors	-9003
life	-9004
oted	-9005
▁195	-9006
▁mel	-9007
▁unl	-9008
▁Span	-9009
▁bull	-9010
▁empt	-9011
▁fiel	-9012
▁soil	-9013
ipment	-9014
mutter	-9015
▁Ihres	-9016
▁Kenya	-9017
▁attem	-9018
▁Bruder	-9019
▁ausgeb	-9020
▁linken	-9021
▁schien	-9022
▁fördern	-9023
▁limited	-9024
▁schaute	-9025
▁treated	-9026
▁Tausende	-9027
▁aufhören	-9028
▁multiple	-9029
▁planning	-9030
▁suggests	-9031
▁Schwester	-9032
▁angesehen	-9033
▁mentioned	-9034
▁seriously	-9035
▁universal	-9036
ait	-9037
kom	-9038
äum	-9039
▁22	-9040
avig	-9041
lieb	-9042
schm	-9043
▁Dad	-9044
▁Eig	-9045
▁Hör	-9046
▁due	-9047
▁pal	-9048
▁Each	-9049
▁Samm	-9050
▁beat	-9051
▁dran	-9052
▁fold	-9053
▁stup	-9054
bracht	-9055
person	-9056
▁Bitte	-9057
▁categ	-9058
▁cycle	-9059
▁lunch	-9060
▁regel	-9061
▁traur	-9062
bewesen	-9063
▁Obwohl	-9064
▁driver	-9065
▁galaxy	-9066
▁incent	-9067
▁stabil	-9068
▁Quadrat	-9069
▁depress	-9070
▁mothers	-9071
▁station	-9072
▁watched	-9073
▁wearing	-9074
▁Moleküle	-9075
▁demokrat	-9076
▁erkannte	-9077
▁received	-9078
▁Entdeckung	-9079
▁entspricht	-9080
80	-9081
sl	-9082
ctic	-9083
enkt	-9084
iano	-9085
oons	-9086
wärt	-9087
▁anz	-9088
▁cam	-9089
▁mos	-9090
schau	-9091
teuer	-9092
▁Sens	-9093
▁agre	-9094
▁arms	-9095
▁bear	-9096
fragen	-9097
▁Reich	-9098
▁Would	-9099
▁fresh	-9100
▁instr	-9101
▁limit	-9102
▁wieso	-9103
▁Fakten	-9104
▁Kräfte	-9105
▁belong	-9106
▁benutz	-9107
▁circle	-9108
▁debate	-9109
▁diskut	-9110
▁string	-9111
▁100,000	-9112
▁Körpers	-9113
▁Spiegel	-9114
▁bekamen	-9115
▁curious	-9116
▁nochmal	-9117
▁vehicle	-9118
▁Mikroben	-9119
▁Bewegungen	-9120
▁equivalent	-9121
▁grandmother	-9122
▁medizinische	-9123
ca	-9124
▁Ol	-9125
▁PM	-9126
▁Pre	-9127
▁dry	-9128
▁gre	-9129
▁zog	-9130
aufte	-9131
▁Dass	-9132
▁drag	-9133
gewalt	-9134
ipping	-9135
▁Erleb	-9136
▁natur	-9137
▁Andere	-9138
▁Effekt	-9139
▁Wellen	-9140
▁belief	-9141
▁erlebt	-9142
▁ließen	-9143
▁Zuhause	-9144
▁dritten	-9145
▁invited	-9146
▁partner	-9147
▁Eindruck	-9148
▁Gegensatz	-9149
▁Manhattan	-9150
▁economics	-9151
▁statistics	-9152
▁wesentlich	-9153
wissenschaft	-9154
▁agriculture	-9155
▁hoffentlich	-9156
▁consequences	-9157
ifik	-9158
rett	-9159
wich	-9160
▁Pac	-9161
▁Pfl	-9162
▁Ven	-9163
▁tag	-9164
itung	-9165
plane	-9166
power	-9167
▁1990	-9168
▁Budd	-9169
▁Fett	-9170
▁Orig	-9171
hängig	-9172
ushing	-9173
▁musst	-9174
▁teuer	-9175
▁versp	-9176
▁Grenze	-9177
▁Irgend	-9178
▁echten	-9179
▁shapes	-9180
▁starke	-9181
▁unless	-9182
▁Nachdem	-9183
▁married	-9184
▁normale	-9185
▁Methoden	-9186
▁erfinden	-9187
▁molecule	-9188
▁ordinary	-9189
▁survival	-9190
▁ungewöhn	-9191
▁continent	-9192
▁instrument	-9193
▁entwickelte	-9194
▁hergestellt	-9195
▁interessanter	-9196
▁“	-9197
asi	-9198
▁'9	-9199
adel	-9200
mitt	-9201
▁Bal	-9202
▁Joe	-9203
▁Net	-9204
▁Ple	-9205
▁rat	-9206
cking	-9207
itude	-9208
▁Hins	-9209
▁Mess	-9210
▁Säug	-9211
▁aufs	-9212
▁coal	-9213
▁gesp	-9214
▁reef	-9215
▁vacc	-9216
▁pages	-9217
▁plane	-9218
▁trägt	-9219
fassung	-9220
glieder	-9221
reitung	-9222
▁Minute	-9223
▁Oxford	-9224
▁breath	-9225
▁fourth	-9226
schlagen	-9227
▁Gleiche	-9228
▁illness	-9229
▁spannen	-9230
▁launched	-9231
▁Everybody	-9232
▁persönlich	-9233
▁reduzieren	-9234
▁increasingly	-9235
▁persönlichen	-9236
BI	-9237
box	-9238
gyp	-9239
utt	-9240
akte	-9241
atom	-9242
fung	-9243
herr	-9244
▁Eng	-9245
▁Top	-9246
▁Ange	-9247
▁Beim	-9248
▁Ever	-9249
▁Mass	-9250
aschen	-9251
gruppe	-9252
nitten	-9253
onomen	-9254
▁Ganze	-9255
▁Jeden	-9256
▁Krise	-9257
▁crime	-9258
tential	-9259
▁Beweis	-9260
▁Kontin	-9261
▁Uganda	-9262
▁aufgew	-9263
▁exists	-9264
▁hoffen	-9265
▁implic	-9266
▁müsste	-9267
▁schick	-9268
▁stammt	-9269
▁vieler	-9270
▁beinhal	-9271
▁drawing	-9272
▁highest	-9273
▁schwarz	-9274
▁Arbeiten	-9275
▁effizient	-9276
▁entscheid	-9277
▁equipment	-9278
▁vergleichen	-9279
▁Gesundheitsw	-9280
"]	-9281
▁ap	-9282
gien	-9283
iern	-9284
ifer	-9285
▁Alz	-9286
▁sum	-9287
▁van	-9288
bares	-9289
emble	-9290
leren	-9291
tocin	-9292
▁Brun	-9293
▁Eben	-9294
▁wave	-9295
anders	-9296
▁chann	-9297
▁roten	-9298
▁sites	-9299
▁steps	-9300
▁Steuer	-9301
▁Yorker	-9302
▁dinner	-9303
▁gender	-9304
▁zahlen	-9305
▁testing	-9306
▁brachten	-9307
▁struggle	-9308
▁cognitive	-9309
▁generations	-9310
So	-9311
eme	-9312
ibe	-9313
▁26	-9314
▁Cr	-9315
andt	-9316
comp	-9317
engu	-9318
ocks	-9319
stud	-9320
zing	-9321
äuse	-9322
▁Jim	-9323
ähren	-9324
▁1980	-9325
▁Pres	-9326
▁engl	-9327
▁gold	-9328
▁intu	-9329
▁scen	-9330
▁Etwas	-9331
▁Other	-9332
ordnung	-9333
▁Rechte	-9334
▁academ	-9335
▁lustig	-9336
▁gestern	-9337
▁nervous	-9338
▁warming	-9339
▁aufbauen	-9340
▁identify	-9341
▁existence	-9342
▁Augenblick	-9343
▁Satelliten	-9344
▁persönliche	-9345
ader	-9346
elly	-9347
rete	-9348
▁Sir	-9349
▁gig	-9350
istor	-9351
oster	-9352
▁Eric	-9353
▁Flag	-9354
▁Gras	-9355
▁Impf	-9356
▁Tour	-9357
▁beis	-9358
▁umge	-9359
▁vere	-9360
ondere	-9361
▁daily	-9362
▁lifet	-9363
▁novel	-9364
▁rural	-9365
fordert	-9366
zentrum	-9367
▁10.000	-9368
▁losing	-9369
▁motion	-9370
▁perman	-9371
▁stupid	-9372
▁Details	-9373
▁Theater	-9374
▁bezahlt	-9375
▁eindeut	-9376
▁gelesen	-9377
▁organic	-9378
▁players	-9379
▁relativ	-9380
▁welchen	-9381
▁Hinsicht	-9382
▁effektiv	-9383
▁engineer	-9384
▁normally	-9385
▁resource	-9386
▁Alzheimer	-9387
▁Gemeinden	-9388
▁brauchten	-9389
▁verbrachte	-9390
▁Generationen	-9391
kept	-9392
sage	-9393
thal	-9394
wach	-9395
▁Hor	-9396
▁SMS	-9397
izont	-9398
mäßig	-9399
ologe	-9400
▁Pfer	-9401
▁Wild	-9402
▁cosm	-9403
▁tail	-9404
▁unex	-9405
▁Human	-9406
▁State	-9407
▁Titan	-9408
▁dolph	-9409
▁round	-9410
iologen	-9411
ologist	-9412
▁Zucker	-9413
▁verlie	-9414
zusetzen	-9415
▁Germany	-9416
▁Vorteil	-9417
▁privile	-9418
▁setting	-9419
▁tausend	-9420
▁wechsel	-9421
▁microbes	-9422
▁schlagen	-9423
▁Netzwerke	-9424
▁hopefully	-9425
▁principle	-9426
▁processes	-9427
▁Eigentlich	-9428
▁Foundation	-9429
▁erscheinen	-9430
Pl	-9431
aj	-9432
can	-9433
hek	-9434
down	-9435
▁Hem	-9436
▁gap	-9437
rehen	-9438
zieht	-9439
▁1960	-9440
▁beit	-9441
▁männ	-9442
▁rück	-9443
▁soph	-9444
atures	-9445
ifying	-9446
merzen	-9447
vollen	-9448
werden	-9449
▁2,000	-9450
▁Armen	-9451
▁Gates	-9452
▁Milch	-9453
▁Viren	-9454
▁facts	-9455
▁grade	-9456
▁north	-9457
▁wobei	-9458
▁Buchst	-9459
▁Garten	-9460
▁bietet	-9461
▁enable	-9462
▁filled	-9463
▁poetry	-9464
▁Ansicht	-9465
▁article	-9466
▁brauche	-9467
▁entschl	-9468
▁theater	-9469
▁vorbere	-9470
imensions	-9471
▁Lebewesen	-9472
▁designing	-9473
▁verbindet	-9474
▁associated	-9475
▁corruption	-9476
▁inspiriert	-9477
▁kilometers	-9478
▁verbreiten	-9479
▁Wahrnehmung	-9480
▁beschlossen	-9481
▁comfortable	-9482
▁natürlichen	-9483
▁distribution	-9484
▁erstaunliche	-9485
▁transformation	-9486
▁32	-9487
▁Ah	-9488
▁af	-9489
acle	-9490
aust	-9491
iend	-9492
leid	-9493
obby	-9494
öpfe	-9495
▁11.	-9496
▁Cal	-9497
besch	-9498
estic	-9499
▁Echt	-9500
▁Elef	-9501
▁date	-9502
▁pure	-9503
▁trip	-9504
ibrary	-9505
plomat	-9506
▁Could	-9507
▁Stock	-9508
▁angeb	-9509
▁einst	-9510
▁Linien	-9511
▁Streit	-9512
▁caused	-9513
▁fossil	-9514
▁leaves	-9515
▁safety	-9516
▁Gedicht	-9517
▁compare	-9518
▁details	-9519
▁genauer	-9520
▁signals	-9521
▁Existenz	-9522
▁airplane	-9523
▁sentence	-9524
▁zunächst	-9525
▁Vorfahren	-9526
▁Zeitalter	-9527
▁according	-9528
▁irgendein	-9529
▁studieren	-9530
▁importance	-9531
▁zugänglich	-9532
▁Elektrizität	-9533
▁International	-9534
mas	-9535
sph	-9536
ura	-9537
cers	-9538
ints	-9539
izop	-9540
ltra	-9541
mann	-9542
sver	-9543
▁10-	-9544
▁120	-9545
▁Ren	-9546
▁Rio	-9547
▁Urs	-9548
▁bom	-9549
▁nan	-9550
cture	-9551
ifest	-9552
inted	-9553
rator	-9554
▁1970	-9555
▁Dire	-9556
▁Koll	-9557
▁Teen	-9558
▁ober	-9559
▁soul	-9560
ichern	-9561
▁awful	-9562
▁chain	-9563
▁colon	-9564
▁saved	-9565
▁scene	-9566
▁signs	-9567
▁solch	-9568
▁south	-9569
▁subst	-9570
ografie	-9571
▁Health	-9572
▁circum	-9573
▁fields	-9574
▁forced	-9575
▁island	-9576
▁kurzem	-9577
▁movies	-9578
izophren	-9579
▁Spieler	-9580
▁covered	-9581
▁dealing	-9582
▁reichen	-9583
▁starten	-9584
▁verschl	-9585
▁behalten	-9586
▁kürzlich	-9587
▁property	-9588
▁Hollywood	-9589
▁Konsequen	-9590
▁Tradition	-9591
▁essential	-9592
▁gestorben	-9593
▁technical	-9594
▁vergangen	-9595
▁yesterday	-9596
▁Korruption	-9597
▁Organismen	-9598
▁beobachtet	-9599
▁dimensions	-9600
▁Architekten	-9601
▁auseinander	-9602
▁verschwinden	-9603
azz	-9604
üte	-9605
▁BF	-9606
▁Ec	-9607
aurs	-9608
cipl	-9609
▁Ast	-9610
▁Mel	-9611
agina	-9612
▁Anim	-9613
▁ethn	-9614
▁pock	-9615
▁tall	-9616
▁vess	-9617
▁wide	-9618
▁zahl	-9619
artige	-9620
design	-9621
▁Tests	-9622
▁folks	-9623
▁fängt	-9624
▁heran	-9625
▁infin	-9626
▁stood	-9627
gegeben	-9628
▁Ausmaß	-9629
▁Grafik	-9630
▁Kaffee	-9631
▁Mexiko	-9632
▁Träume	-9633
▁announ	-9634
▁grunds	-9635
▁refuge	-9636
▁spring	-9637
▁gehören	-9638
▁Prototyp	-9639
▁abhängig	-9640
▁analysis	-9641
▁diagnost	-9642
▁entgegen	-9643
▁schwarze	-9644
▁Jahrzehnt	-9645
▁Everything	-9646
▁Interessen	-9647
▁aufzubauen	-9648
▁electrical	-9649
▁schlechter	-9650
▁connections	-9651
▁researchers	-9652
▁grundlegende	-9653
8.	-9654
kan	-9655
pra	-9656
von	-9657
baut	-9658
▁dat	-9659
gment	-9660
nimmt	-9661
▁Atem	-9662
▁Atom	-9663
▁Camp	-9664
▁Coll	-9665
▁Resp	-9666
▁Roll	-9667
▁asks	-9668
▁hide	-9669
▁jähr	-9670
▁Ägyp	-9671
recher	-9672
▁Brook	-9673
▁Kreuz	-9674
▁aufta	-9675
▁meist	-9676
▁shoes	-9677
amerika	-9678
auspiel	-9679
forscht	-9680
frieden	-9681
schrift	-9682
▁Aspekt	-9683
▁Staats	-9684
▁Steven	-9685
▁Beweise	-9686
▁angesch	-9687
▁killing	-9688
▁stärker	-9689
▁Elemente	-9690
▁Japanese	-9691
▁Produktion	-9692
▁artificial	-9693
▁innovative	-9694
wä	-9695
uhr	-9696
vas	-9697
vis	-9698
üge	-9699
▁sy	-9700
icip	-9701
▁Pfe	-9702
▁bits	-9703
▁fuhr	-9704
▁tons	-9705
ibliot	-9706
minist	-9707
rechte	-9708
riften	-9709
▁blieb	-9710
▁chimp	-9711
▁folgt	-9712
▁halbe	-9713
▁heavy	-9714
▁nötig	-9715
▁vorbe	-9716
rategie	-9717
umenten	-9718
▁Jemand	-9719
▁Welche	-9720
▁explan	-9721
▁hypoth	-9722
▁verblü	-9723
achstums	-9724
▁Website	-9725
▁arrived	-9726
▁Schatten	-9727
▁clinical	-9728
▁geändert	-9729
▁komplexe	-9730
▁professor	-9731
▁Medikament	-9732
▁considered	-9733
▁faszinierend	-9734
?“	-9735
ij	-9736
üb	-9737
Yes	-9738
isf	-9739
zed	-9740
That	-9741
agon	-9742
gely	-9743
urer	-9744
▁Int	-9745
izien	-9746
kreis	-9747
lying	-9748
rooms	-9749
▁Gand	-9750
▁Klin	-9751
▁Ober	-9752
▁enem	-9753
▁horr	-9754
▁resc	-9755
▁surf	-9756
endung	-9757
onents	-9758
▁anger	-9759
▁erled	-9760
▁spoke	-9761
▁waves	-9762
drücken	-9763
orthern	-9764
▁Canada	-9765
▁Geräus	-9766
▁Saturn	-9767
▁finish	-9768
▁kombin	-9769
▁voices	-9770
ätigkeit	-9771
▁Britain	-9772
▁lessons	-9773
▁astronom	-9774
▁tomorrow	-9775
▁Abschluss	-9776
▁Geschlecht	-9777
▁experienced	-9778
▁beschäftigen	-9779
▁traditionellen	-9780
9.	-9781
oli	-9782
ula	-9783
▁AB	-9784
▁NG	-9785
ario	-9786
fish	-9787
test	-9788
▁700	-9789
▁ruh	-9790
erves	-9791
karte	-9792
▁Such	-9793
▁copy	-9794
▁diet	-9795
▁hadn	-9796
▁trib	-9797
ündete	-9798
▁layer	-9799
▁negot	-9800
erneath	-9801
wirkung	-9802
▁Lachen	-9803
▁damage	-9804
▁lebten	-9805
▁reicht	-9806
▁zählen	-9807
inosaurs	-9808
▁erkennt	-9809
▁letters	-9810
▁sources	-9811
▁Kulturen	-9812
▁appropri	-9813
▁epidemic	-9814
▁feelings	-9815
▁zerstört	-9816
▁Brasilien	-9817
▁convinced	-9818
▁wondering	-9819
▁darstellen	-9820
▁construction	-9821
He	-9822
fle	-9823
hel	-9824
zep	-9825
▁3.	-9826
adow	-9827
atik	-9828
igem	-9829
star	-9830
uous	-9831
▁Lou	-9832
▁Pen	-9833
▁cow	-9834
▁tim	-9835
chnet	-9836
iable	-9837
igern	-9838
▁Aust	-9839
▁Dach	-9840
▁Gree	-9841
▁Schu	-9842
▁Viet	-9843
▁Zell	-9844
▁flag	-9845
▁kick	-9846
▁shif	-9847
▁spät	-9848
isters	-9849
▁Korea	-9850
▁Weile	-9851
▁autom	-9852
▁divid	-9853
▁flies	-9854
▁liked	-9855
▁pengu	-9856
▁recon	-9857
▁wuchs	-9858
stellte	-9859
▁credit	-9860
▁drüben	-9861
▁meiste	-9862
▁sample	-9863
elescope	-9864
struktur	-9865
▁Florida	-9866
▁autonom	-9867
▁calling	-9868
▁morgens	-9869
▁neurosc	-9870
▁opening	-9871
▁Chemikal	-9872
▁reaction	-9873
▁thoughts	-9874
▁Emotionen	-9875
▁Geheimnis	-9876
▁beschleun	-9877
▁beschloss	-9878
▁chemicals	-9879
▁geschickt	-9880
▁satellite	-9881
▁verhalten	-9882
▁Überrasch	-9883
▁healthcare	-9884
▁Mitarbeiter	-9885
▁Schwierigkeiten	-9886
Do	-9887
wie	-9888
▁Ve	-9889
Mail	-9890
edic	-9891
rain	-9892
skop	-9893
▁10,	-9894
▁Dat	-9895
▁Ray	-9896
elben	-9897
gerät	-9898
igste	-9899
iques	-9900
▁Fehl	-9901
▁Show	-9902
▁Sitz	-9903
▁Ungl	-9904
▁dots	-9905
▁gall	-9906
▁grab	-9907
▁verg	-9908
▁Seele	-9909
▁cloth	-9910
▁geist	-9911
▁holes	-9912
▁maint	-9913
▁minim	-9914
▁passt	-9915
▁Umfeld	-9916
▁deeper	-9917
▁encoun	-9918
▁körper	-9919
▁leiden	-9920
▁picked	-9921
▁player	-9922
▁spezif	-9923
▁steigt	-9924
▁trials	-9925
▁Malaria	-9926
▁radical	-9927
▁Nachbarn	-9928
▁anwenden	-9929
▁cultures	-9930
▁erstellt	-9931
▁expected	-9932
▁messages	-9933
▁Erklärung	-9934
▁aufregend	-9935
▁chemistry	-9936
▁entdeckte	-9937
▁entertain	-9938
▁sophistic	-9939
▁expression	-9940
▁management	-9941
▁possibilities	-9942
-1	-9943
ET	-9944
add	-9945
oute	-9946
resp	-9947
rägt	-9948
▁19.	-9949
▁Hey	-9950
alyse	-9951
linge	-9952
omben	-9953
▁Mary	-9954
▁Merk	-9955
▁Soll	-9956
▁Verd	-9957
▁erle	-9958
▁fern	-9959
▁gefü	-9960
▁user	-9961
orient	-9962
▁Fälle	-9963
▁Their	-9964
▁prove	-9965
anthrop	-9966
spielen	-9967
▁Quelle	-9968
▁Voraus	-9969
▁advert	-9970
▁analog	-9971
▁enorme	-9972
▁establ	-9973
▁muscle	-9974
▁nieder	-9975
bewegung	-9976
zuführen	-9977
▁Maßstab	-9978
▁TEDTalk	-9979
▁cartoon	-9980
▁cutting	-9981
▁nations	-9982
▁spielte	-9983
▁variety	-9984
▁annehmen	-9985
▁sprachen	-9986
▁President	-9987
▁Zuschauer	-9988
▁erscheint	-9989
▁interface	-9990
▁verfügbar	-9991
▁vermeiden	-9992
▁zerstören	-9993
▁Diskussion	-9994
▁definieren	-9995
3.	-9996
Is	-9997
hst	-9998
pet	-9999
ups	-10000
gant	-10001
oses	-10002
ping	-10003
umin	-10004
▁DNS	-10005
▁Fas	-10006
ancen	-10007
oking	-10008
uable	-10009
▁Kerl	-10010
▁Null	-10011
▁Verw	-10012
▁drin	-10013
▁evil	-10014
▁klin	-10015
▁maps	-10016
▁vote	-10017
▁youn	-10018
bridge	-10019
▁Black	-10020
▁Derek	-10021
▁Zitat	-10022
▁ermut	-10023
▁perce	-10024
▁solid	-10025
▁zieht	-10026
▁übrig	-10027
bereich	-10028
bewusst	-10029
gedacht	-10030
quality	-10031
▁Batter	-10032
▁Erwart	-10033
▁berühm	-10034
▁videos	-10035
ichtlich	-10036
programm	-10037
▁Konflik	-10038
▁Student	-10039
▁keeping	-10040
▁Weltraum	-10041
▁emerging	-10042
▁nützlich	-10043
stellungen	-10044
▁aufgebaut	-10045
▁dinosaurs	-10046
▁collection	-10047
▁schlechten	-10048
▁underneath	-10049
möglichkeiten	-10050
MA	-10051
afe	-10052
cal	-10053
hab	-10054
▁191	-10055
▁Day	-10056
▁Ost	-10057
genda	-10058
iquid	-10059
passt	-10060
▁Bron	-10061
▁Prim	-10062
▁beib	-10063
▁getr	-10064
▁scri	-10065
▁shel	-10066
acters	-10067
haften	-10068
holfen	-10069
iences	-10070
▁Betra	-10071
▁Zweck	-10072
▁schwe	-10073
▁sympt	-10074
steigen	-10075
▁Chemie	-10076
▁setzte	-10077
ographie	-10078
▁battery	-10079
▁erwähnt	-10080
▁experts	-10081
isationen	-10082
▁deswegen	-10083
▁marriage	-10084
imensionen	-10085
versorgung	-10086
▁Philosoph	-10087
▁carefully	-10088
▁worldwide	-10089
▁unabhängig	-10090
▁vermitteln	-10091
▁independent	-10092
▁menschlicher	-10093
IP	-10094
sa	-10095
rix	-10096
äne	-10097
▁95	-10098
alem	-10099
illa	-10100
izer	-10101
▁Mas	-10102
▁Wei	-10103
▁Zer	-10104
glied	-10105
rufen	-10106
state	-10107
wesen	-10108
▁blow	-10109
▁hurt	-10110
▁wake	-10111
▁weak	-10112
▁Parte	-10113
▁Union	-10114
▁außen	-10115
▁broke	-10116
▁quasi	-10117
▁spont	-10118
▁unend	-10119
ulating	-10120
▁einzus	-10121
▁formen	-10122
▁review	-10123
▁Berechn	-10124
▁capture	-10125
▁dynamic	-10126
▁müssten	-10127
▁umgeben	-10128
verbrauch	-10129
▁advanced	-10130
▁consumer	-10131
▁disaster	-10132
▁exercise	-10133
▁whenever	-10134
▁Verbesser	-10135
▁invention	-10136
▁characters	-10137
▁verbessert	-10138
▁Erwachsenen	-10139
▁entrepreneurs	-10140
DP	-10141
bru	-10142
gte	-10143
▁wü	-10144
agos	-10145
aube	-10146
kont	-10147
▁Sum	-10148
▁sem	-10149
iency	-10150
ierer	-10151
inahe	-10152
itals	-10153
staat	-10154
▁Fast	-10155
▁Hill	-10156
▁Vern	-10157
▁arts	-10158
▁ends	-10159
▁flat	-10160
▁shut	-10161
agramm	-10162
▁Neues	-10163
▁empty	-10164
▁rates	-10165
▁sucht	-10166
outhern	-10167
züglich	-10168
▁Flücht	-10169
▁Gewinn	-10170
▁Größen	-10171
▁Riesen	-10172
▁facing	-10173
▁status	-10174
▁Angriff	-10175
▁Auswahl	-10176
▁Quanten	-10177
▁Vietnam	-10178
▁beinahe	-10179
▁viruses	-10180
fähigkeit	-10181
▁gewissen	-10182
▁valuable	-10183
▁organized	-10184
▁Australien	-10185
▁Verhältnis	-10186
▁stattdessen	-10187
▁transparent	-10188
▁Informations	-10189
.«	-10190
mü	-10191
lyn	-10192
▁Bay	-10193
▁Dro	-10194
▁Hol	-10195
▁Jew	-10196
▁Mah	-10197
asste	-10198
maßen	-10199
▁Cart	-10200
▁Gore	-10201
▁Jose	-10202
▁Long	-10203
▁Trag	-10204
▁Wurz	-10205
▁unus	-10206
illing	-10207
imming	-10208
muster	-10209
▁Antar	-10210
▁Brief	-10211
▁Gutes	-10212
▁Offen	-10213
▁beweg	-10214
▁fähig	-10215
▁humor	-10216
ziehung	-10217
▁Bedroh	-10218
▁Kriegs	-10219
▁Ozeane	-10220
▁ausgel	-10221
▁heißen	-10222
▁houses	-10223
▁sharks	-10224
▁treten	-10225
▁Erkrank	-10226
▁Komment	-10227
▁Stephen	-10228
▁cameras	-10229
▁moderne	-10230
▁worüber	-10231
▁Freundin	-10232
▁requires	-10233
▁Bereichen	-10234
▁photograp	-10235
▁überrasch	-10236
▁relatively	-10237
▁transition	-10238
▁Deutschland	-10239
-,	-10240
Al	-10241
bors	-10242
dest	-10243
izon	-10244
▁Bem	-10245
▁Tes	-10246
▁ped	-10247
▁rig	-10248
▁zut	-10249
iform	-10250
▁Matt	-10251
▁chap	-10252
▁rief	-10253
▁summ	-10254
jemand	-10255
▁Brown	-10256
▁Grand	-10257
▁Pingu	-10258
igungen	-10259
▁Epidem	-10260
▁Helden	-10261
▁ergibt	-10262
▁kannte	-10263
▁option	-10264
▁zusätz	-10265
qualität	-10266
▁Schnitt	-10267
▁microsc	-10268
▁rapidly	-10269
▁solcher	-10270
▁ersetzen	-10271
▁exchange	-10272
▁generate	-10273
▁location	-10274
▁behaviors	-10275
▁movements	-10276
▁Definition	-10277
▁beschreibt	-10278
▁discussion	-10279
▁properties	-10280
▁situations	-10281
erechtigkeit	-10282
verständlich	-10283
▁intellectual	-10284
LA	-10285
ees	-10286
ria	-10287
sun	-10288
umn	-10289
gene	-10290
würd	-10291
▁Opt	-10292
▁bul	-10293
▁tap	-10294
▁wom	-10295
artig	-10296
eller	-10297
öpfen	-10298
▁Kurs	-10299
▁Weib	-10300
▁deta	-10301
▁erwe	-10302
▁exec	-10303
▁höre	-10304
▁ride	-10305
▁suit	-10306
esents	-10307
äusern	-10308
▁Moral	-10309
▁Sogar	-10310
▁Stufe	-10311
▁Vögel	-10312
▁crowd	-10313
▁dunkl	-10314
▁fewer	-10315
▁passw	-10316
▁teeth	-10317
▁vorne	-10318
areness	-10319
gründet	-10320
steroid	-10321
▁Anteil	-10322
▁Inhalt	-10323
▁Neurow	-10324
▁Schuld	-10325
▁fellow	-10326
▁gelöst	-10327
▁Entfern	-10328
▁Präsent	-10329
▁Risiken	-10330
▁Verlust	-10331
▁gebeten	-10332
▁roughly	-10333
▁victims	-10334
▁Arbeiter	-10335
▁Bereiche	-10336
▁convince	-10337
▁entstand	-10338
▁gefangen	-10339
▁hydrogen	-10340
▁verwende	-10341
▁Cambridge	-10342
▁Potential	-10343
▁chimpanze	-10344
▁Situationen	-10345
▁Erinnerungen	-10346
▁specifically	-10347
führ	-10348
osex	-10349
temp	-10350
ämpf	-10351
▁800	-10352
▁Amy	-10353
▁LED	-10354
▁Rom	-10355
▁biz	-10356
▁pil	-10357
ician	-10358
otten	-10359
ichert	-10360
▁cards	-10361
▁chart	-10362
▁goals	-10363
achtung	-10364
griffen	-10365
▁Inspir	-10366
▁Virgin	-10367
▁former	-10368
▁skelet	-10369
▁Fernseh	-10370
▁depends	-10371
▁promise	-10372
▁welchem	-10373
▁lifetime	-10374
idimension	-10375
▁Erfindung	-10376
▁digitalen	-10377
▁practical	-10378
▁schwimmen	-10379
▁represents	-10380
▁vulnerable	-10381
▁effectively	-10382
▁schrecklich	-10383
Man	-10384
ora	-10385
ruh	-10386
sey	-10387
ubb	-10388
ähn	-10389
ült	-10390
frei	-10391
laub	-10392
rane	-10393
▁Skl	-10394
▁Yet	-10395
▁hur	-10396
▁lic	-10397
ünder	-10398
▁Four	-10399
▁Mult	-10400
▁Stör	-10401
▁Wall	-10402
▁corn	-10403
▁cure	-10404
▁gain	-10405
sprung	-10406
titude	-10407
▁Diagn	-10408
▁Hilfs	-10409
▁Letzt	-10410
▁Women	-10411
▁admit	-10412
▁chron	-10413
ständen	-10414
▁Damals	-10415
▁Doktor	-10416
▁Howard	-10417
▁Signal	-10418
▁battle	-10419
▁prefer	-10420
▁authent	-10421
▁primary	-10422
▁theoret	-10423
▁Echtzeit	-10424
▁Geräusch	-10425
▁Zwischen	-10426
▁langweil	-10427
▁verteilt	-10428
▁industrie	-10429
▁beinhaltet	-10430
▁techniques	-10431
▁Statistiken	-10432
EC	-10433
Gl	-10434
ati	-10435
vey	-10436
arre	-10437
oles	-10438
▁Pet	-10439
▁Sor	-10440
▁rit	-10441
cling	-10442
gling	-10443
greif	-10444
halts	-10445
quare	-10446
sters	-10447
uropä	-10448
weile	-10449
▁bran	-10450
▁diss	-10451
▁irre	-10452
▁neut	-10453
▁qual	-10454
▁scre	-10455
▁snow	-10456
indert	-10457
ortion	-10458
▁Febru	-10459
▁Lager	-10460
▁Stuhl	-10461
▁Wieso	-10462
▁honor	-10463
▁navig	-10464
zufügen	-10465
▁Anyway	-10466
▁Mandel	-10467
▁bottle	-10468
▁buying	-10469
▁dunkle	-10470
▁langer	-10471
▁contain	-10472
▁fiction	-10473
▁regener	-10474
▁seitdem	-10475
▁überprü	-10476
▁besuchen	-10477
▁parallel	-10478
▁relative	-10479
▁schätzen	-10480
▁besondere	-10481
▁emissions	-10482
▁langfrist	-10483
▁notwendig	-10484
▁producing	-10485
▁Buchstaben	-10486
▁Großmutter	-10487
▁gemeinsame	-10488
▁underwater	-10489
▁verwandelt	-10490
▁westlichen	-10491
▁gesellschaft	-10492
▁collaboration	-10493
/1	-10494
bek	-10495
▁KB	-10496
▁Zä	-10497
eten	-10498
iler	-10499
▁GDP	-10500
▁Ham	-10501
▁Jes	-10502
▁err	-10503
ränkt	-10504
▁Homo	-10505
▁Mike	-10506
▁jüng	-10507
▁lady	-10508
▁trop	-10509
gehend	-10510
iglich	-10511
lösung	-10512
▁Passw	-10513
▁defen	-10514
▁fiber	-10515
▁risks	-10516
▁smile	-10517
itarian	-10518
▁Einsch	-10519
▁Tonnen	-10520
▁Wetter	-10521
▁bubble	-10522
▁define	-10523
▁hinten	-10524
▁inevit	-10525
▁length	-10526
▁Element	-10527
▁Werbung	-10528
▁enthält	-10529
▁insight	-10530
▁konstru	-10531
▁liefern	-10532
▁musical	-10533
▁unusual	-10534
besondere	-10535
▁explains	-10536
▁versteht	-10537
▁veränderte	-10538
▁unterstützt	-10539
▁mathematical	-10540
▁internationale	-10541
hai	-10542
ini	-10543
uts	-10544
bers	-10545
kins	-10546
okus	-10547
samm	-10548
▁Hen	-10549
▁Sus	-10550
▁Vis	-10551
▁pot	-10552
chron	-10553
hythm	-10554
icing	-10555
▁Bund	-10556
▁Hell	-10557
▁Inte	-10558
▁Jane	-10559
▁Josh	-10560
▁Kenn	-10561
▁Komb	-10562
▁arab	-10563
▁thro	-10564
▁unit	-10565
▁wand	-10566
rieren	-10567
▁Süden	-10568
▁added	-10569
▁befre	-10570
▁reven	-10571
▁staff	-10572
▁übert	-10573
▁Belohn	-10574
▁Nieder	-10575
▁Wolken	-10576
▁bauten	-10577
▁explod	-10578
▁junger	-10579
▁organs	-10580
▁Bestand	-10581
▁Momente	-10582
▁Wechsel	-10583
▁Wissens	-10584
▁berührt	-10585
▁kitchen	-10586
▁malaria	-10587
▁release	-10588
▁steuern	-10589
▁carrying	-10590
▁darunter	-10591
▁zurückzu	-10592
▁generally	-10593
▁molecular	-10594
▁überwinden	-10595
▁fantastisch	-10596
▁Wesentlichen	-10597
▁vorzustellen	-10598
▁Persönlichkeit	-10599
▁wirtschaftliche	-10600
].	-10601
not	-10602
oma	-10603
airs	-10604
flug	-10605
ials	-10606
netz	-10607
rass	-10608
what	-10609
▁Wow	-10610
▁asp	-10611
▁bow	-10612
akers	-10613
cover	-10614
oting	-10615
ville	-10616
▁Allt	-10617
▁Anst	-10618
▁Expl	-10619
▁Hans	-10620
▁Prob	-10621
▁biom	-10622
▁firm	-10623
▁mode	-10624
▁stir	-10625
ueller	-10626
▁Kevin	-10627
▁doubt	-10628
▁shall	-10629
▁silen	-10630
▁sugar	-10631
aurants	-10632
▁Laptop	-10633
▁Stärke	-10634
▁Winter	-10635
▁detect	-10636
▁thanks	-10637
▁worlds	-10638
▁erhielt	-10639
▁include	-10640
▁nachden	-10641
▁selling	-10642
▁sending	-10643
▁standen	-10644
▁verring	-10645
▁äußerst	-10646
▁überein	-10647
▁übersch	-10648
▁Kongress	-10649
▁Minister	-10650
▁circumst	-10651
▁pleasure	-10652
▁systemat	-10653
▁Operation	-10654
▁Strategie	-10655
▁Wohlstand	-10656
▁mortality	-10657
▁pollution	-10658
▁terrorism	-10659
▁übernehmen	-10660
▁Kombination	-10661
▁Stattdessen	-10662
▁Zivilisation	-10663
▁Gerechtigkeit	-10664
▁unglaublichen	-10665
▁internationalen	-10666
abb	-10667
▁ce	-10668
bell	-10669
rict	-10670
ught	-10671
▁nor	-10672
acken	-10673
▁Alph	-10674
▁Play	-10675
▁Tele	-10676
▁grid	-10677
▁grün	-10678
▁ring	-10679
▁rout	-10680
▁soft	-10681
▁Klein	-10682
▁Stern	-10683
▁beach	-10684
▁maxim	-10685
▁sides	-10686
▁traum	-10687
▁Anders	-10688
▁Andrew	-10689
▁Leider	-10690
▁assign	-10691
▁fehlen	-10692
▁remain	-10693
▁sparen	-10694
▁winter	-10695
sprozess	-10696
▁Fahrrad	-10697
▁Geistes	-10698
▁Respekt	-10699
▁Taliban	-10700
▁hierher	-10701
▁lokalen	-10702
▁regions	-10703
▁Nachhalt	-10704
▁beweisen	-10705
▁encourag	-10706
▁kreieren	-10707
▁prepared	-10708
▁released	-10709
▁vertraut	-10710
▁Anwendung	-10711
▁interests	-10712
bevölkerung	-10713
▁convention	-10714
▁restaurant	-10715
▁Jahrzehnten	-10716
▁überraschend	-10717
▁medizinischen	-10718
Na	-10719
▁x	-10720
200	-10721
Amer	-10722
appy	-10723
foot	-10724
half	-10725
hips	-10726
ikes	-10727
imit	-10728
inte	-10729
ompl	-10730
quar	-10731
▁Krä	-10732
▁dün	-10733
▁gay	-10734
▁gee	-10735
▁ing	-10736
▁Paar	-10737
▁Rake	-10738
▁Teuf	-10739
▁Tief	-10740
▁acqu	-10741
▁sorg	-10742
freund	-10743
mented	-10744
▁Bauch	-10745
▁Pfund	-10746
▁Rechn	-10747
▁Schäd	-10748
▁drauf	-10749
▁serve	-10750
prechen	-10751
▁Handel	-10752
▁blauen	-10753
▁durchs	-10754
▁factor	-10755
▁meinte	-10756
▁Fliegen	-10757
▁Molekül	-10758
▁Schicks	-10759
▁factors	-10760
▁vergröß	-10761
abilities	-10762
▁gespielt	-10763
▁mögliche	-10764
▁verstehe	-10765
▁eindeutig	-10766
▁lediglich	-10767
▁Ökosystem	-10768
▁components	-10769
▁passionate	-10770
▁Chemikalien	-10771
▁Einstellung	-10772
▁beschrieben	-10773
▁photographs	-10774
▁politicians	-10775
▁Wirtschaftsw	-10776
▁environments	-10777
fir	-10778
▁85	-10779
▁SS	-10780
ense	-10781
fert	-10782
mehr	-10783
▁Imp	-10784
▁Mor	-10785
▁Sow	-10786
illen	-10787
opter	-10788
ätter	-10789
▁Jung	-10790
▁brit	-10791
▁runs	-10792
▁vent	-10793
▁zust	-10794
ammelt	-10795
apital	-10796
▁Poten	-10797
▁White	-10798
▁armen	-10799
▁inher	-10800
▁steel	-10801
dlichen	-10802
wärmung	-10803
▁Danach	-10804
▁Gegend	-10805
▁Hunger	-10806
▁Lungen	-10807
▁Sprach	-10808
▁Symbol	-10809
▁begren	-10810
▁besagt	-10811
▁conver	-10812
▁furcht	-10813
▁geomet	-10814
▁Galaxie	-10815
▁Lektion	-10816
▁Pacific	-10817
▁attempt	-10818
▁engaged	-10819
▁feature	-10820
▁gefällt	-10821
▁however	-10822
▁impress	-10823
▁privacy	-10824
▁Lebenser	-10825
▁Ungleich	-10826
▁leichter	-10827
▁trillion	-10828
▁aufnehmen	-10829
▁typically	-10830
▁Instrument	-10831
▁Schauspiel	-10832
▁fasziniert	-10833
▁introduced	-10834
▁perception	-10835
▁psychology	-10836
▁feststellen	-10837
▁großartigen	-10838
▁sophisticated	-10839
Ch	-10840
DA	-10841
kul	-10842
uba	-10843
Look	-10844
anen	-10845
grad	-10846
▁Cra	-10847
boden	-10848
level	-10849
ratch	-10850
▁Empf	-10851
▁atom	-10852
▁beiz	-10853
▁disp	-10854
▁genü	-10855
▁shop	-10856
▁swim	-10857
▁verf	-10858
▁wars	-10859
icious	-10860
ternal	-10861
▁Brian	-10862
▁Hunde	-10863
▁Küste	-10864
▁Scott	-10865
▁Since	-10866
▁Tumor	-10867
▁atoms	-10868
▁cyber	-10869
▁goods	-10870
▁habit	-10871
▁metal	-10872
▁obser	-10873
▁occup	-10874
▁stehe	-10875
▁stock	-10876
▁sweet	-10877
▁unbek	-10878
erstand	-10879
▁Herren	-10880
▁Mengen	-10881
▁Normal	-10882
▁blocks	-10883
▁fisher	-10884
▁gelebt	-10885
▁mirror	-10886
▁Bibliot	-10887
▁Einheit	-10888
▁Wirkung	-10889
losigkeit	-10890
▁Komponen	-10891
▁affected	-10892
▁dahinter	-10893
▁graduate	-10894
▁spectrum	-10895
▁ähnliche	-10896
▁Grundlage	-10897
▁Interview	-10898
▁Transport	-10899
▁employees	-10900
▁entfernen	-10901
▁introduce	-10902
▁newspaper	-10903
▁wirkliche	-10904
▁democratic	-10905
▁Bedürfnisse	-10906
▁Innovationen	-10907
▁menschliches	-10908
öss	-10909
abol	-10910
kind	-10911
leib	-10912
▁Ehr	-10913
▁Hon	-10914
▁erz	-10915
▁lon	-10916
daten	-10917
ielle	-10918
▁2005	-10919
▁2010	-10920
▁Zahn	-10921
▁clim	-10922
▁fürs	-10923
▁heir	-10924
▁seid	-10925
izienz	-10926
leitet	-10927
source	-10928
unting	-10929
▁Darum	-10930
▁Gehen	-10931
▁Koran	-10932
▁Platt	-10933
▁Power	-10934
▁toxic	-10935
▁tumor	-10936
ermaßen	-10937
zwungen	-10938
▁Brücke	-10939
▁advice	-10940
▁anonym	-10941
▁compar	-10942
▁depart	-10943
▁driven	-10944
▁ingred	-10945
▁replic	-10946
▁stattf	-10947
▁talent	-10948
▁aggress	-10949
▁grundle	-10950
▁Betracht	-10951
▁folgende	-10952
▁ancestors	-10953
▁gegründet	-10954
▁mountains	-10955
▁radiation	-10956
▁algorithms	-10957
▁gegenseitig	-10958
▁evolutionary	-10959
70	-10960
Wow	-10961
rey	-10962
wel	-10963
▁MT	-10964
..."	-10965
äden	-10966
äfte	-10967
▁bag	-10968
▁dot	-10969
▁wra	-10970
anned	-10971
antom	-10972
▁Benj	-10973
▁Penn	-10974
▁bare	-10975
▁dogs	-10976
forest	-10977
▁5,000	-10978
▁Einen	-10979
▁Space	-10980
▁Weihn	-10981
▁Würde	-10982
▁imple	-10983
▁notes	-10984
▁polar	-10985
▁unerw	-10986
▁verab	-10987
gruppen	-10988
▁Blumen	-10989
▁Skulpt	-10990
▁regard	-10991
▁satisf	-10992
▁season	-10993
material	-10994
▁Central	-10995
▁Johnson	-10996
▁actions	-10997
▁berühmt	-10998
▁gravity	-10999
▁mistake	-11000
▁replace	-11001
▁singing	-11002
▁Congress	-11003
▁sichtbar	-11004
▁weiterer	-11005
leistungen	-11006
▁Gesichter	-11007
▁Südafrika	-11008
▁Verbrechen	-11009
▁unexpected	-11010
▁Aktivitäten	-11011
▁Stammzellen	-11012
▁akzeptieren	-11013
aat	-11014
▁33	-11015
lles	-11016
nahm	-11017
ränk	-11018
ugel	-11019
uses	-11020
▁Ann	-11021
▁Boy	-11022
▁Brü	-11023
iogen	-11024
seins	-11025
▁Laut	-11026
▁Leon	-11027
▁Weiß	-11028
▁legt	-11029
▁sees	-11030
▁tank	-11031
making	-11032
penden	-11033
plätze	-11034
urance	-11035
▁Blatt	-11036
▁Kenia	-11037
▁Media	-11038
▁Trick	-11039
▁aging	-11040
▁baute	-11041
▁innen	-11042
▁refer	-11043
▁heisst	-11044
▁liquid	-11045
▁medium	-11046
▁realen	-11047
▁singen	-11048
sprechen	-11049
▁William	-11050
▁centers	-11051
▁kriegen	-11052
▁manchen	-11053
▁opinion	-11054
▁reached	-11055
▁Mehrheit	-11056
▁elektron	-11057
▁mistakes	-11058
▁recorded	-11059
▁encounter	-11060
▁erweitern	-11061
▁definitely	-11062
▁protection	-11063
▁Terrorismus	-11064
▁combination	-11065
Ex	-11066
pa	-11067
va	-11068
▁:	-11069
agh	-11070
▁CD	-11071
▁Lu	-11072
mord	-11073
omme	-11074
umps	-11075
west	-11076
zipl	-11077
▁Ban	-11078
▁Wil	-11079
▁phr	-11080
▁que	-11081
▁ums	-11082
iring	-11083
iveau	-11084
▁Walk	-11085
▁nett	-11086
mechan	-11087
▁Wüste	-11088
▁aston	-11089
▁piano	-11090
▁skill	-11091
▁toler	-11092
stoffen	-11093
▁Gesamt	-11094
▁Sobald	-11095
▁Welten	-11096
▁cortex	-11097
▁eingel	-11098
▁scared	-11099
▁soviel	-11100
▁ungehe	-11101
underten	-11102
▁chicken	-11103
▁courage	-11104
▁electro	-11105
▁fishing	-11106
▁forests	-11107
▁zeigten	-11108
▁Aufnahme	-11109
▁Deswegen	-11110
▁Spektrum	-11111
▁beispiel	-11112
▁combined	-11113
▁falschen	-11114
▁Gegenwart	-11115
▁hospitals	-11116
▁neighbors	-11117
▁scheinbar	-11118
▁traveling	-11119
▁meaningful	-11120
▁schwieriger	-11121
oir	-11122
see	-11123
äub	-11124
örm	-11125
bage	-11126
emin	-11127
gibt	-11128
ifth	-11129
oint	-11130
rüst	-11131
ulin	-11132
▁Dep	-11133
▁bug	-11134
▁wüs	-11135
alled	-11136
athie	-11137
chest	-11138
eding	-11139
kehrt	-11140
samen	-11141
uther	-11142
▁Rett	-11143
▁bath	-11144
▁clip	-11145
▁erwä	-11146
▁gang	-11147
▁quad	-11148
▁vibr	-11149
friend	-11150
igungs	-11151
ruppen	-11152
▁Hotel	-11153
▁Jesus	-11154
▁Motiv	-11155
▁While	-11156
▁dedic	-11157
▁estim	-11158
▁horse	-11159
▁keeps	-11160
▁Besond	-11161
▁Russia	-11162
▁Zufall	-11163
▁aftern	-11164
▁kümmer	-11165
▁sauber	-11166
▁vieles	-11167
▁Afrikas	-11168
▁Hindern	-11169
▁Viertel	-11170
▁Zeitung	-11171
▁empathy	-11172
▁erhöhen	-11173
arbeitung	-11174
▁Gesichts	-11175
▁Vorteile	-11176
▁besseres	-11177
▁memories	-11178
▁required	-11179
▁stronger	-11180
▁Alexander	-11181
▁awareness	-11182
▁komplexen	-11183
▁angenommen	-11184
▁Sicherheits	-11185
6.	-11186
ima	-11187
isl	-11188
▁3,	-11189
alte	-11190
uits	-11191
wald	-11192
▁Ram	-11193
▁Roh	-11194
▁adj	-11195
▁spr	-11196
▁Ähn	-11197
ahnen	-11198
chnik	-11199
ettet	-11200
räger	-11201
räume	-11202
utete	-11203
üssen	-11204
▁baut	-11205
▁brut	-11206
▁eggs	-11207
▁froh	-11208
▁gere	-11209
▁heim	-11210
▁länd	-11211
▁prec	-11212
▁rote	-11213
▁tape	-11214
fected	-11215
reffen	-11216
reiche	-11217
▁Sympt	-11218
▁Teles	-11219
▁false	-11220
▁geste	-11221
▁immen	-11222
▁mosqu	-11223
▁ought	-11224
▁topic	-11225
▁August	-11226
▁Pflege	-11227
▁anfing	-11228
▁ausgew	-11229
▁belieb	-11230
▁lokale	-11231
▁pulled	-11232
▁solved	-11233
▁stream	-11234
▁Gebiete	-11235
▁gewählt	-11236
▁glaubte	-11237
erstörung	-11238
schriften	-11239
stitution	-11240
verhalten	-11241
▁Schritte	-11242
▁features	-11243
▁konfront	-11244
▁ultimate	-11245
▁vehicles	-11246
▁bekannten	-11247
▁dieselben	-11248
▁encourage	-11249
▁naturally	-11250
▁geschlossen	-11251
▁funktionierte	-11252
BM	-11253
lad	-11254
▁28	-11255
enew	-11256
thur	-11257
ulse	-11258
▁Alt	-11259
▁FBI	-11260
▁Jac	-11261
▁Leg	-11262
▁hey	-11263
acles	-11264
adium	-11265
iders	-11266
nungs	-11267
orter	-11268
scale	-11269
▁Bege	-11270
▁Nase	-11271
▁hang	-11272
▁iPod	-11273
▁tick	-11274
apping	-11275
ateful	-11276
estyle	-11277
unkten	-11278
▁3,000	-11279
▁Damen	-11280
▁Erdbe	-11281
▁embar	-11282
▁input	-11283
▁tests	-11284
▁ultra	-11285
▁verkn	-11286
▁Fabrik	-11287
▁Führer	-11288
▁Säuget	-11289
▁bestät	-11290
▁drives	-11291
▁hoping	-11292
▁senden	-11293
▁sports	-11294
▁Absicht	-11295
▁Perhaps	-11296
▁Richtig	-11297
▁Signale	-11298
▁applied	-11299
▁besitzt	-11300
▁dropped	-11301
▁records	-11302
▁Bevölker	-11303
▁zeichnen	-11304
▁Allgemein	-11305
▁Marketing	-11306
▁framework	-11307
▁functions	-11308
▁increased	-11309
▁mechanism	-11310
▁überlegen	-11311
▁Prinzipien	-11312
▁literature	-11313
▁personally	-11314
▁destruction	-11315
▁gemeinsamen	-11316
▁inspiration	-11317
▁participate	-11318
▁Fortschritte	-11319
▁technological	-11320
▁transportation	-11321
Sh	-11322
],	-11323
ffe	-11324
pel	-11325
▁Ky	-11326
igma	-11327
ombe	-11328
sper	-11329
ätzt	-11330
▁Que	-11331
▁ens	-11332
achel	-11333
belie	-11334
lager	-11335
▁Früh	-11336
▁Nick	-11337
▁arme	-11338
▁bicy	-11339
▁hits	-11340
ducing	-11341
gesamt	-11342
▁Erinn	-11343
▁Kabel	-11344
▁Stahl	-11345
▁athle	-11346
▁fährt	-11347
▁jener	-11348
▁legit	-11349
▁prime	-11350
▁storm	-11351
▁theme	-11352
▁Dunkel	-11353
▁France	-11354
▁Kirche	-11355
▁Symmet	-11356
▁advent	-11357
▁church	-11358
▁formed	-11359
▁lachen	-11360
▁senses	-11361
▁ökonom	-11362
lerweile	-11363
▁largely	-11364
▁witness	-11365
▁Business	-11366
▁birthday	-11367
▁digitale	-11368
▁internal	-11369
▁occasion	-11370
▁schlafen	-11371
▁sunlight	-11372
▁Überzeug	-11373
▁Literatur	-11374
▁computing	-11375
▁erforscht	-11376
▁activities	-11377
▁efficiency	-11378
▁physically	-11379
▁Untersuchung	-11380
▁konzentriert	-11381
▁fundamentally	-11382
▁Nachhaltigkeit	-11383
tte	-11384
wen	-11385
önt	-11386
▁Ra	-11387
lief	-11388
mack	-11389
reck	-11390
▁Mig	-11391
▁Ter	-11392
▁sau	-11393
bleme	-11394
istin	-11395
▁Baus	-11396
▁Blue	-11397
▁Dazu	-11398
▁Five	-11399
▁Mama	-11400
▁erhe	-11401
▁grad	-11402
▁heil	-11403
▁mile	-11404
▁peak	-11405
▁tats	-11406
father	-11407
▁Immer	-11408
▁Initi	-11409
▁Liber	-11410
▁Phase	-11411
▁günst	-11412
▁inten	-11413
▁score	-11414
▁shame	-11415
▁Gottes	-11416
▁Newton	-11417
▁bedeut	-11418
▁desper	-11419
▁leiten	-11420
▁studio	-11421
atastrop	-11422
pflanzen	-11423
▁Sternen	-11424
▁accompl	-11425
▁amounts	-11426
▁ansieht	-11427
▁führten	-11428
▁operate	-11429
▁silence	-11430
▁Diagramm	-11431
▁Metapher	-11432
▁perfekte	-11433
▁Billionen	-11434
▁afternoon	-11435
▁behaupten	-11436
▁collected	-11437
▁marketing	-11438
▁bezeichnen	-11439
▁foundation	-11440
▁automatisch	-11441
▁aufgewachsen	-11442
▁afrikanischen	-11443
▁manufacturing	-11444
▁sustainability	-11445
My	-11446
▁PC	-11447
atar	-11448
cons	-11449
etch	-11450
irds	-11451
reht	-11452
uted	-11453
whel	-11454
▁Cop	-11455
▁ere	-11456
abeth	-11457
elson	-11458
linie	-11459
schne	-11460
▁1000	-11461
▁Chef	-11462
▁Gute	-11463
▁Hard	-11464
▁Weis	-11465
▁joke	-11466
▁remo	-11467
▁wine	-11468
Dollar	-11469
aptops	-11470
kosten	-11471
recken	-11472
umines	-11473
zeigen	-11474
▁Dafür	-11475
▁Henry	-11476
▁Rhyth	-11477
▁pregn	-11478
▁repar	-11479
antasie	-11480
ließend	-11481
schläge	-11482
ältigen	-11483
▁Alters	-11484
▁Mittag	-11485
▁elimin	-11486
▁weißen	-11487
▁willst	-11488
▁ökolog	-11489
ikations	-11490
▁Chancen	-11491
▁cooking	-11492
▁herausf	-11493
▁Teenager	-11494
▁Zunächst	-11495
▁antibiot	-11496
▁constant	-11497
▁gefallen	-11498
▁occurred	-11499
▁threaten	-11500
schmutzung	-11501
▁Elefanten	-11502
▁embarrass	-11503
▁gebraucht	-11504
▁kostenlos	-11505
▁protected	-11506
▁conclusion	-11507
▁Unterhaltung	-11508
▁conservation	-11509
▁Vorstellungen	-11510
▁Gemeinschaften	-11511
ato	-11512
urr	-11513
▁sä	-11514
▁Mio	-11515
▁Moo	-11516
▁Okt	-11517
▁Son	-11518
▁hem	-11519
▁mad	-11520
▁toy	-11521
erung	-11522
esome	-11523
reibe	-11524
wagen	-11525
▁Back	-11526
▁Wein	-11527
▁trig	-11528
hängen	-11529
kelett	-11530
opping	-11531
punkte	-11532
quelle	-11533
schiff	-11534
▁Chaos	-11535
▁House	-11536
▁Humor	-11537
▁Parad	-11538
▁Wagen	-11539
▁anget	-11540
▁pharm	-11541
▁roads	-11542
▁verhe	-11543
ishment	-11544
▁Anwend	-11545
▁Grippe	-11546
▁Option	-11547
▁acting	-11548
▁anhand	-11549
▁assist	-11550
▁golden	-11551
▁laptop	-11552
▁neuron	-11553
▁rocket	-11554
ktivität	-11555
▁Annahme	-11556
▁Musiker	-11557
▁attacks	-11558
▁bekomme	-11559
▁diction	-11560
▁discipl	-11561
▁falling	-11562
▁kreativ	-11563
probieren	-11564
▁Benjamin	-11565
▁Webseite	-11566
▁concrete	-11567
▁dramatic	-11568
▁geholfen	-11569
▁hinunter	-11570
▁Geräusche	-11571
▁Kontinent	-11572
▁algorithm	-11573
▁beobachte	-11574
▁berichten	-11575
▁centuries	-11576
▁darstellt	-11577
▁narrative	-11578
▁processing	-11579
▁dargestellt	-11580
▁grundsätzlich	-11581
je	-11582
dis	-11583
opy	-11584
oto	-11585
▁36	-11586
ania	-11587
irat	-11588
look	-11589
ocal	-11590
rise	-11591
utze	-11592
älde	-11593
▁Bol	-11594
▁Ruf	-11595
▁anx	-11596
being	-11597
lines	-11598
obile	-11599
opard	-11600
orous	-11601
umble	-11602
zepte	-11603
▁Prop	-11604
▁Snow	-11605
▁belo	-11606
▁hind	-11607
▁zoom	-11608
bücher	-11609
profit	-11610
▁Cyber	-11611
▁Folie	-11612
▁Samen	-11613
▁charm	-11614
▁films	-11615
▁renew	-11616
▁staat	-11617
▁wofür	-11618
ategien	-11619
▁Daniel	-11620
▁Löcher	-11621
▁erhöht	-11622
▁fingen	-11623
▁patent	-11624
▁survey	-11625
cription	-11626
vermögen	-11627
▁Anstatt	-11628
▁besorgt	-11629
▁dauerte	-11630
▁einiges	-11631
▁equally	-11632
▁figures	-11633
▁therapy	-11634
▁unglück	-11635
▁visible	-11636
▁bemerkte	-11637
▁overwhel	-11638
▁proteins	-11639
▁swimming	-11640
▁Wachstums	-11641
▁zufrieden	-11642
▁Gedächtnis	-11643
▁beibringen	-11644
▁controlled	-11645
▁weltweiten	-11646
▁durchführen	-11647
▁potentially	-11648
▁Präsentation	-11649
▁beispielsweise	-11650
For	-11651
ixt	-11652
sst	-11653
avel	-11654
burg	-11655
gefü	-11656
▁Jud	-11657
▁Lib	-11658
▁Mer	-11659
▁Out	-11660
▁spo	-11661
hetic	-11662
ismen	-11663
retch	-11664
▁2050	-11665
▁Balk	-11666
▁Beij	-11667
▁Eier	-11668
▁Kart	-11669
▁Krit	-11670
▁Ohne	-11671
▁Only	-11672
▁cast	-11673
▁lens	-11674
▁sets	-11675
karten	-11676
▁Conne	-11677
▁Magie	-11678
▁Ohren	-11679
▁River	-11680
▁Roman	-11681
▁Spann	-11682
▁Zweif	-11683
▁blaue	-11684
▁frank	-11685
▁sowas	-11686
▁umher	-11687
rechend	-11688
systems	-11689
▁Besuch	-11690
▁Nobody	-11691
▁Studio	-11692
▁Unfall	-11693
▁achten	-11694
▁button	-11695
▁critic	-11696
▁landen	-11697
▁merken	-11698
▁tempor	-11699
▁trafen	-11700
▁wander	-11701
ologists	-11702
▁Meister	-11703
▁burning	-11704
▁starben	-11705
▁suppose	-11706
▁zweimal	-11707
▁Physiker	-11708
▁Research	-11709
▁Resultat	-11710
▁Russland	-11711
▁presence	-11712
▁somewhat	-11713
▁tracking	-11714
oberfläche	-11715
▁Potenzial	-11716
▁erwachsen	-11717
▁vertrauen	-11718
▁confidence	-11719
▁moralische	-11720
▁percentage	-11721
▁Konsequenzen	-11722
▁irgendjemand	-11723
7.	-11724
CA	-11725
pth	-11726
▁ok	-11727
ihad	-11728
isph	-11729
▁Sup	-11730
▁mur	-11731
burgh	-11732
menge	-11733
telef	-11734
▁Abra	-11735
▁Cons	-11736
▁Cont	-11737
▁Flie	-11738
▁Gibt	-11739
▁Grün	-11740
▁Vent	-11741
▁Voll	-11742
▁horm	-11743
▁pill	-11744
▁silk	-11745
elling	-11746
gebiet	-11747
iertes	-11748
iosity	-11749
rücken	-11750
▁Bevor	-11751
▁Hallo	-11752
▁Inner	-11753
▁Prize	-11754
▁clock	-11755
▁globe	-11756
▁städt	-11757
▁upper	-11758
chester	-11759
sterben	-11760
ultural	-11761
▁Budget	-11762
▁Kanada	-11763
▁Nelson	-11764
▁boring	-11765
▁freien	-11766
▁reisen	-11767
▁Nutzung	-11768
▁drücken	-11769
▁offenen	-11770
▁verlang	-11771
▁Anführer	-11772
▁Antibiot	-11773
▁Hunderte	-11774
▁creature	-11775
▁springen	-11776
▁Angestell	-11777
▁Ernährung	-11778
▁Spielzeug	-11779
▁bemerkens	-11780
▁permanent	-11781
▁schwarzen	-11782
▁Jahrzehnte	-11783
▁Schließlich	-11784
▁Sonnenlicht	-11785
▁voneinander	-11786
ahrscheinlich	-11787
▁presentation	-11788
▁unterrichten	-11789
▁verschwunden	-11790
▁conversations	-11791
▁psychological	-11792
▁veröffentlich	-11793
Ne	-11794
Sp	-11795
li	-11796
osn	-11797
zne	-11798
üse	-11799
▁Ep	-11800
▁ah	-11801
▁Üb	-11802
▁Mur	-11803
behör	-11804
unate	-11805
veled	-11806
▁June	-11807
▁Time	-11808
▁Tony	-11809
▁club	-11810
▁gewö	-11811
▁icon	-11812
▁kalt	-11813
▁pump	-11814
▁subs	-11815
ansion	-11816
▁Bronx	-11817
▁Clint	-11818
▁Eisen	-11819
▁Fokus	-11820
▁Jones	-11821
▁adopt	-11822
▁cents	-11823
▁enden	-11824
▁rooms	-11825
▁stärk	-11826
▁woher	-11827
identen	-11828
▁Mangel	-11829
▁Number	-11830
▁Status	-11831
▁autism	-11832
▁forder	-11833
▁hinauf	-11834
▁marine	-11835
▁Aussage	-11836
▁beenden	-11837
▁closely	-11838
▁defined	-11839
▁options	-11840
▁stoppen	-11841
▁trinken	-11842
▁unknown	-11843
▁Ereignis	-11844
▁Erlebnis	-11845
▁subjects	-11846
▁umfassen	-11847
▁verstand	-11848
▁Aufnahmen	-11849
▁Programme	-11850
▁Schicksal	-11851
▁Something	-11852
▁betreiben	-11853
▁providing	-11854
▁Darstellung	-11855
▁Inspiration	-11856
▁explanation	-11857
▁transformed	-11858
▁implications	-11859
ava	-11860
▁RB	-11861
▁li	-11862
keys	-11863
zykl	-11864
▁Bre	-11865
child	-11866
gence	-11867
iture	-11868
▁Bern	-11869
▁Blau	-11870
▁Vari	-11871
▁diam	-11872
▁fake	-11873
▁frem	-11874
▁furn	-11875
▁load	-11876
▁plot	-11877
eitern	-11878
modell	-11879
osphor	-11880
▁Räume	-11881
▁Shang	-11882
▁chose	-11883
▁depth	-11884
▁fehlt	-11885
▁ridic	-11886
▁songs	-11887
▁teilt	-11888
▁trend	-11889
▁voran	-11890
▁whist	-11891
artigen	-11892
inction	-11893
▁Fellow	-11894
▁Zauber	-11895
▁europä	-11896
▁filter	-11897
▁flower	-11898
▁monkey	-11899
▁writer	-11900
aneously	-11901
leistung	-11902
▁Debatte	-11903
▁Verwand	-11904
▁Vorhers	-11905
▁circuit	-11906
▁comment	-11907
▁decline	-11908
▁designs	-11909
▁outcome	-11910
▁quarter	-11911
▁solange	-11912
▁treiben	-11913
▁unteren	-11914
▁Argument	-11915
▁Freiwill	-11916
▁Männchen	-11917
▁Regionen	-11918
▁Versuche	-11919
▁abstract	-11920
▁accurate	-11921
▁director	-11922
▁election	-11923
▁existing	-11924
▁genügend	-11925
▁physikal	-11926
▁Computern	-11927
▁Computers	-11928
▁Verstehen	-11929
▁betroffen	-11930
▁einfaches	-11931
▁enthalten	-11932
▁versteckt	-11933
▁Ereignisse	-11934
▁electronic	-11935
▁sogenannte	-11936
▁speziellen	-11937
▁surrounded	-11938
▁transplant	-11939
▁Ausstellung	-11940
▁appropriate	-11941
▁biologische	-11942
▁Unfortunately	-11943
▁bemerkenswert	-11944
▁circumstances	-11945
obi	-11946
▁Tö	-11947
adic	-11948
erte	-11949
gten	-11950
lass	-11951
olds	-11952
ooth	-11953
oust	-11954
▁Hat	-11955
▁Jun	-11956
▁Ted	-11957
▁odd	-11958
aktor	-11959
barer	-11960
imine	-11961
point	-11962
preis	-11963
tritt	-11964
▁Song	-11965
▁bell	-11966
▁hack	-11967
▁hook	-11968
▁tack	-11969
dienst	-11970
phones	-11971
ranche	-11972
▁Erfol	-11973
▁Feind	-11974
▁angem	-11975
▁bedro	-11976
▁brill	-11977
▁error	-11978
▁plans	-11979
▁platz	-11980
▁split	-11981
▁wisst	-11982
ahnsinn	-11983
systeme	-11984
▁Eigent	-11985
▁Kindes	-11986
▁Märkte	-11987
▁Strand	-11988
▁deaths	-11989
▁grosse	-11990
▁grünen	-11991
▁handle	-11992
▁heaven	-11993
▁hörten	-11994
▁orange	-11995
▁schlau	-11996
▁stayed	-11997
▁suchte	-11998
▁tested	-11999
▁wirken	-12000
▁worauf	-12001
▁breathe	-12002
▁clothes	-12003
▁erkannt	-12004
▁glamour	-12005
▁hielten	-12006
▁housing	-12007
▁overall	-12008
▁remains	-12009
▁reverse	-12010
▁tonight	-12011
erkennung	-12012
▁Kampagne	-12013
▁begegnen	-12014
▁infected	-12015
▁reagiert	-12016
▁schreibt	-12017
▁transfer	-12018
▁verdient	-12019
▁villages	-12020
▁wertvoll	-12021
▁wireless	-12022
▁authority	-12023
▁bekämpfen	-12024
▁explained	-12025
▁operation	-12026
▁sensitive	-12027
unternehmen	-12028
▁antwortete	-12029
▁capitalism	-12030
▁productive	-12031
▁proportion	-12032
▁applications	-12033
▁organisieren	-12034
"?	-12035
tä	-12036
erd	-12037
zut	-12038
coln	-12039
holz	-12040
icit	-12041
tein	-12042
uben	-12043
▁Dig	-12044
▁Dör	-12045
▁Syn	-12046
▁kop	-12047
▁rie	-12048
itors	-12049
ogram	-12050
olate	-12051
▁Come	-12052
▁Gulf	-12053
▁Sant	-12054
▁cave	-12055
▁dens	-12056
▁ears	-12057
▁hers	-12058
▁imit	-12059
▁impl	-12060
▁lebe	-12061
fangen	-12062
usions	-12063
▁Noten	-12064
▁Saudi	-12065
▁Story	-12066
▁embed	-12067
rüstung	-12068
sprache	-12069
▁Square	-12070
▁border	-12071
▁dunkel	-12072
▁extens	-12073
▁involv	-12074
▁tiefer	-12075
zukommen	-12076
▁Mandela	-12077
▁Schaden	-12078
▁beliebt	-12079
▁nannten	-12080
▁Geschenk	-12081
▁Weisheit	-12082
▁contrast	-12083
▁measured	-12084
▁determine	-12085
▁gebrochen	-12086
▁kreativen	-12087
▁langsamer	-12088
▁spiritual	-12089
▁technique	-12090
▁teilweise	-12091
▁Frankreich	-12092
▁Geburtstag	-12093
▁ausgesetzt	-12094
▁verglichen	-12095
▁exploration	-12096
▁Bevölkerungs	-12097
▁entrepreneur	-12098
geschwindigkeit	-12099
ga	-12100
dam	-12101
ault	-12102
bern	-12103
förm	-12104
gent	-12105
gren	-12106
iser	-12107
izza	-12108
ouds	-12109
rets	-12110
▁Nam	-12111
Spiel	-12112
iking	-12113
ormen	-12114
polit	-12115
unruh	-12116
vable	-12117
üpfen	-12118
▁Beit	-12119
▁Ford	-12120
▁Serv	-12121
▁flew	-12122
▁gras	-12123
▁merk	-12124
▁outc	-12125
▁thin	-12126
sunami	-12127
ätzung	-12128
ördert	-12129
▁Armee	-12130
▁Optim	-12131
▁beige	-12132
▁memor	-12133
▁stere	-12134
▁weigh	-12135
▁weiße	-12136
schicht	-12137
▁Bundes	-12138
▁Handys	-12139
▁Weiter	-12140
▁assume	-12141
▁gelang	-12142
▁heilen	-12143
▁limits	-12144
▁papers	-12145
▁suffer	-12146
▁whales	-12147
icherung	-12148
tausende	-12149
▁Gericht	-12150
▁Krieges	-12151
▁Quellen	-12152
▁Schicht	-12153
▁combine	-12154
▁frequen	-12155
▁mosquit	-12156
▁mystery	-12157
▁neugier	-12158
▁nowhere	-12159
▁sensors	-12160
▁tatsäch	-12161
▁Krankenh	-12162
▁administ	-12163
▁horrible	-12164
▁symptoms	-12165
▁untersch	-12166
▁Christmas	-12167
▁betrieben	-12168
▁derselben	-12169
▁reduziert	-12170
legenheiten	-12171
▁Entfernung	-12172
▁Erwachsene	-12173
▁Restaurant	-12174
▁Unterricht	-12175
▁Wettbewerb	-12176
▁appreciate	-12177
▁behavioral	-12178
▁Wirtschafts	-12179
▁grundlegend	-12180
mo	-12181
rid	-12182
Yeah	-12183
cean	-12184
erie	-12185
pern	-12186
▁Box	-12187
▁Ron	-12188
▁Roy	-12189
▁Sah	-12190
▁Sec	-12191
▁Tum	-12192
▁dok	-12193
okuss	-12194
think	-12195
▁2009	-12196
▁Bell	-12197
▁Hong	-12198
▁News	-12199
▁bike	-12200
▁elev	-12201
▁grat	-12202
▁item	-12203
▁loud	-12204
▁melt	-12205
▁milk	-12206
▁suic	-12207
▁wash	-12208
astern	-12209
linien	-12210
▁Arist	-12211
▁Wegen	-12212
▁angry	-12213
▁bones	-12214
▁curve	-12215
▁datab	-12216
▁plate	-12217
▁proto	-12218
▁resil	-12219
▁skept	-12220
▁taste	-12221
plicity	-12222
▁Aktion	-12223
▁Detail	-12224
▁ausger	-12225
▁genius	-12226
▁joined	-12227
▁nachts	-12228
▁puzzle	-12229
▁schock	-12230
▁script	-12231
▁Gemälde	-12232
▁Kameras	-12233
▁Verkauf	-12234
▁doppelt	-12235
▁embrace	-12236
▁robotic	-12237
▁samples	-12238
▁weshalb	-12239
▁bewirken	-12240
▁collapse	-12241
▁dokument	-12242
▁Ingenieur	-12243
▁basierend	-12244
▁beteiligt	-12245
▁ernsthaft	-12246
▁zunehmend	-12247
▁Regierungs	-12248
▁architects	-12249
▁economists	-12250
▁laboratory	-12251
▁challenging	-12252
▁nachgedacht	-12253
▁kontrolliert	-12254
Bl	-12255
jo	-12256
ye	-12257
Ein	-12258
kor	-12259
las	-12260
yon	-12261
▁DV	-12262
▁ew	-12263
alys	-12264
iene	-12265
ihen	-12266
jahr	-12267
park	-12268
umer	-12269
ziel	-12270
ärme	-12271
▁Lam	-12272
▁Lee	-12273
▁McC	-12274
▁Sud	-12275
▁cha	-12276
brech	-12277
eseit	-12278
▁Live	-12279
▁Witz	-12280
▁mush	-12281
▁schn	-12282
iguren	-12283
istics	-12284
sphäre	-12285
▁Sarah	-12286
▁angel	-12287
▁logic	-12288
▁lying	-12289
▁walks	-12290
▁wirkt	-12291
ruments	-12292
uilding	-12293
▁Abfall	-12294
▁deploy	-12295
▁höhere	-12296
▁linked	-12297
▁relate	-12298
▁remove	-12299
ieinhalb	-12300
onnected	-12301
▁100.000	-12302
▁Spezial	-12303
▁bestand	-12304
▁contrib	-12305
▁evening	-12306
▁gründen	-12307
▁mittels	-12308
▁recover	-12309
▁allowing	-12310
▁wherever	-12311
▁Basically	-12312
▁statement	-12313
▁storytell	-12314
▁bezeichnet	-12315
▁mechanical	-12316
▁Erwartungen	-12317
▁instruments	-12318
▁vergangenen	-12319
▁Entdeckungen	-12320
▁insbesondere	-12321
OL	-12322
ado	-12323
gly	-12324
irk	-12325
mot	-12326
▁55	-12327
▁SP	-12328
▁Up	-12329
▁lö	-12330
ming	-12331
nach	-12332
oned	-12333
rait	-12334
züge	-12335
älle	-12336
▁Kra	-12337
▁Rit	-12338
▁ack	-12339
▁aim	-12340
esity	-12341
fällt	-12342
rated	-12343
weich	-12344
▁Ehem	-12345
▁Feyn	-12346
▁Jenn	-12347
▁Klav	-12348
▁Lego	-12349
▁Ment	-12350
▁Mosk	-12351
▁Stäm	-12352
▁Zust	-12353
▁acts	-12354
▁cord	-12355
▁disg	-12356
▁nose	-12357
▁pool	-12358
▁root	-12359
bilder	-12360
▁Angeb	-12361
▁Autom	-12362
▁Flüss	-12363
▁Tiefe	-12364
▁appar	-12365
▁diver	-12366
▁faced	-12367
▁hotel	-12368
▁sight	-12369
reibung	-12370
▁Before	-12371
▁Darauf	-12372
▁Flügel	-12373
▁Golden	-12374
▁Stücke	-12375
▁latest	-12376
▁pollen	-12377
▁unterr	-12378
▁volume	-12379
▁überqu	-12380
▁Aspekte	-12381
▁Indones	-12382
▁Lincoln	-12383
▁Silicon	-12384
▁aufgere	-12385
▁dancing	-12386
▁fingers	-12387
▁flowers	-12388
▁gekauft	-12389
▁poorest	-12390
scheinend	-12391
▁Brooklyn	-12392
▁Shanghai	-12393
▁anschaut	-12394
▁besessen	-12395
▁engaging	-12396
▁paradigm	-12397
▁provided	-12398
▁unmittel	-12399
▁wondered	-12400
▁bezüglich	-12401
▁disorders	-12402
▁footprint	-12403
▁gentlemen	-12404
▁standards	-12405
▁versorgen	-12406
▁Sichtweise	-12407
▁irgendeine	-12408
▁Algorithmen	-12409
▁educational	-12410
▁Lebenserwart	-12411
▁Überraschung	-12412
wissenschaften	-12413
▁Klassenzimmer	-12414
▁veröffentlichen	-12415
aa	-12416
irt	-12417
lag	-12418
mma	-12419
yan	-12420
▁Av	-12421
gelt	-12422
hour	-12423
illy	-12424
ione	-12425
zten	-12426
▁god	-12427
force	-12428
läuft	-12429
night	-12430
opath	-12431
stage	-12432
stuhl	-12433
▁Fert	-12434
▁Rick	-12435
▁lets	-12436
▁obst	-12437
▁pink	-12438
heorie	-12439
jected	-12440
leiten	-12441
rucken	-12442
▁Kateg	-12443
▁Lasst	-12444
▁McDon	-12445
▁Party	-12446
▁Scham	-12447
▁knapp	-12448
▁plays	-12449
▁stone	-12450
▁vital	-12451
ichtete	-12452
▁Arthur	-12453
▁Presse	-12454
▁Schach	-12455
▁Schwer	-12456
▁Willen	-12457
▁corals	-12458
▁erneut	-12459
▁gigant	-12460
▁sensor	-12461
▁slides	-12462
▁spüren	-12463
▁Schwarz	-12464
▁beunruh	-12465
▁classes	-12466
▁corresp	-12467
▁ergeben	-12468
▁metabol	-12469
▁musikal	-12470
▁respekt	-12471
▁verstär	-12472
iolumines	-12473
▁Gebäuden	-12474
▁Proteine	-12475
▁Schweden	-12476
▁Zeitraum	-12477
▁floating	-12478
▁genießen	-12479
▁glaubten	-12480
▁mehreren	-12481
▁philosop	-12482
▁verblüff	-12483
▁verliert	-12484
▁Verbrauch	-12485
▁construct	-12486
▁economies	-12487
▁practices	-12488
▁umzugehen	-12489
▁Bibliothek	-12490
▁Teilnehmer	-12491
▁Zerstörung	-12492
▁wenigstens	-12493
▁Dimensionen	-12494
▁Psychologie	-12495
▁Verbreitung	-12496
▁application	-12497
Me	-12498
oz	-12499
Kon	-12500
cus	-12501
▁Hi	-12502
▁LG	-12503
Welt	-12504
anzt	-12505
frau	-12506
greg	-12507
ifiz	-12508
ippe	-12509
iums	-12510
nütz	-12511
vely	-12512
üter	-12513
▁Zus	-12514
▁aer	-12515
▁Ära	-12516
atson	-12517
hängt	-12518
ipfel	-12519
kular	-12520
ündet	-12521
▁Acht	-12522
▁Biom	-12523
▁Male	-12524
▁Mamm	-12525
▁Schm	-12526
▁army	-12527
▁barr	-12528
▁bene	-12529
▁busy	-12530
▁loop	-12531
asters	-12532
ereien	-12533
werken	-12534
▁Detro	-12535
▁boxes	-12536
▁fixed	-12537
▁rocks	-12538
▁thick	-12539
esented	-12540
illance	-12541
▁Fläche	-12542
▁Metall	-12543
▁Schalt	-12544
▁dienen	-12545
▁extent	-12546
▁height	-12547
▁lebens	-12548
▁lehren	-12549
▁secure	-12550
▁severe	-12551
▁traged	-12552
▁unlike	-12553
handlung	-12554
ücksicht	-12555
▁Feynman	-12556
▁Kapitel	-12557
▁causing	-12558
▁feeding	-12559
▁funding	-12560
▁library	-12561
▁pushing	-12562
▁solving	-12563
zuschauen	-12564
▁Kleidung	-12565
▁Schlacht	-12566
▁lebenden	-12567
▁lebendig	-12568
▁momentan	-12569
▁speziell	-12570
▁Christian	-12571
▁folgenden	-12572
▁folgendes	-12573
krankheiten	-12574
▁consistent	-12575
▁eingeladen	-12576
▁schwierige	-12577
▁Instrumente	-12578
▁verursachen	-12579
▁wunderbaren	-12580
▁ursprünglich	-12581
▁grundlegenden	-12582
IS	-12583
öd	-12584
Ind	-12585
eda	-12586
hum	-12587
wis	-12588
▁zü	-12589
derm	-12590
otes	-12591
▁9/1	-12592
▁Acc	-12593
acing	-12594
agger	-12595
aktiv	-12596
attoo	-12597
hagen	-12598
ignet	-12599
uting	-12600
▁Naja	-12601
▁Robo	-12602
▁Wann	-12603
▁gran	-12604
▁hilf	-12605
▁kons	-12606
▁nest	-12607
▁tent	-12608
▁trug	-12609
angene	-12610
iology	-12611
rition	-12612
▁Beute	-12613
▁Latin	-12614
▁Wicht	-12615
▁dozen	-12616
▁dress	-12617
▁pitch	-12618
▁prize	-12619
▁uncom	-12620
▁veran	-12621
▁whale	-12622
▁woran	-12623
mittelt	-12624
örtlich	-12625
▁Hypoth	-12626
▁Machen	-12627
▁absorb	-12628
▁clouds	-12629
▁hängen	-12630
▁owners	-12631
▁spinal	-12632
bekommen	-12633
ubringen	-12634
▁Designs	-12635
▁Muslims	-12636
▁Stewart	-12637
▁Zweifel	-12638
▁careful	-12639
▁diverse	-12640
▁earthqu	-12641
▁elegant	-12642
▁fluores	-12643
▁gezogen	-12644
▁harvest	-12645
▁letzter	-12646
▁parking	-12647
▁surgeon	-12648
▁vaccine	-12649
▁violent	-12650
▁younger	-12651
▁Ägypten	-12652
▁infinite	-12653
▁policies	-12654
▁schauten	-12655
▁breathing	-12656
▁identical	-12657
▁intellekt	-12658
▁inequality	-12659
▁wahrnehmen	-12660
gesellschaft	-12661
▁entscheidend	-12662
▁hinterlassen	-12663
▁interactions	-12664
fäh	-12665
sex	-12666
ucks	-12667
▁Moz	-12668
▁Nic	-12669
▁Ten	-12670
▁une	-12671
insel	-12672
istet	-12673
lings	-12674
▁Akte	-12675
▁Verm	-12676
▁dign	-12677
▁hieß	-12678
▁reco	-12679
▁stro	-12680
▁zuzu	-12681
uchtet	-12682
winkel	-12683
▁1.000	-12684
▁About	-12685
▁Arzne	-12686
▁Brand	-12687
▁Bruno	-12688
▁Decke	-12689
▁Dynam	-12690
▁alltä	-12691
▁grain	-12692
▁grüne	-12693
artment	-12694
schauen	-12695
▁Chirur	-12696
▁Futter	-12697
▁Please	-12698
▁angeht	-12699
▁angene	-12700
▁deiner	-12701
▁interc	-12702
▁nervös	-12703
▁offers	-12704
▁repair	-12705
▁spider	-12706
funktion	-12707
▁Systems	-12708
▁Taschen	-12709
▁classic	-12710
▁frankly	-12711
▁zurecht	-12712
▁Erdbeben	-12713
▁Trotzdem	-12714
▁asteroid	-12715
▁drinking	-12716
▁erfassen	-12717
▁gerettet	-12718
▁gewisser	-12719
▁obsessed	-12720
▁psychiat	-12721
▁studiert	-12722
▁synchron	-12723
▁wechseln	-12724
▁begreifen	-12725
▁definiert	-12726
▁measuring	-12727
▁reference	-12728
▁selection	-12729
▁unterwegs	-12730
▁Ingenieure	-12731
▁hinzufügen	-12732
▁Herstellung	-12733
▁interactive	-12734
Wer	-12735
ölk	-12736
▁2:	-12737
▁20,	-12738
▁pin	-12739
ipher	-12740
▁2006	-12741
▁Infe	-12742
▁chip	-12743
▁choc	-12744
▁phil	-12745
ichtum	-12746
ilemma	-12747
onomie	-12748
▁Chile	-12749
▁Große	-12750
▁Indem	-12751
▁Rwand	-12752
▁flood	-12753
▁teams	-12754
fliegen	-12755
▁Ethiop	-12756
▁Hacker	-12757
▁Leiter	-12758
▁Schnee	-12759
▁Schuhe	-12760
▁agreed	-12761
▁ausser	-12762
▁orient	-12763
▁robust	-12764
▁stands	-12765
▁struck	-12766
abilität	-12767
ervative	-12768
issionen	-12769
▁Beijing	-12770
▁Detroit	-12771
▁anticip	-12772
▁command	-12773
▁constra	-12774
▁diagram	-12775
▁mammals	-12776
▁monkeys	-12777
▁windows	-12778
▁Carolina	-12779
▁Everyone	-12780
▁Faktoren	-12781
▁equation	-12782
▁illusion	-12783
▁instruct	-12784
ussendlich	-12785
▁Denkweise	-12786
▁aufgeregt	-12787
▁bedeutete	-12788
▁celebrate	-12789
▁consumers	-12790
▁continued	-12791
▁increases	-12792
▁niemanden	-12793
technologie	-12794
zeichnungen	-12795
▁Reaktionen	-12796
▁journalist	-12797
▁philosophy	-12798
▁unsichtbar	-12799
▁elektrische	-12800
▁inspirieren	-12801
▁recognition	-12802
▁vorbereitet	-12803
▁wiederholen	-12804
issenschaftler	-12805
But	-12806
eed	-12807
▁$1	-12808
▁Et	-12809
▁SW	-12810
▁ow	-12811
pfel	-12812
rein	-12813
walk	-12814
ätte	-12815
▁30-	-12816
▁350	-12817
▁mim	-12818
▁rum	-12819
ansas	-12820
onien	-12821
vater	-12822
▁Dsch	-12823
▁Vert	-12824
▁mice	-12825
▁seas	-12826
decken	-12827
▁Congo	-12828
▁Kurve	-12829
▁Teams	-12830
▁Toten	-12831
▁alarm	-12832
▁imper	-12833
▁mobil	-12834
▁phase	-12835
▁shell	-12836
▁wovon	-12837
▁Faktor	-12838
▁Gemüse	-12839
▁Pollen	-12840
▁Rechts	-12841
▁Watson	-12842
▁column	-12843
▁garant	-12844
▁hunger	-12845
▁placed	-12846
▁rechte	-12847
aufnahme	-12848
▁Verteid	-12849
▁carried	-12850
▁erwarte	-12851
▁existed	-12852
▁offered	-12853
▁Chinesen	-12854
▁November	-12855
▁Problems	-12856
▁Theorien	-12857
▁Training	-12858
▁distinct	-12859
▁domestic	-12860
▁grateful	-12861
▁organism	-12862
▁overcome	-12863
▁penguins	-12864
▁Geschäfte	-12865
▁Projekten	-12866
▁Schmerzen	-12867
▁arguments	-12868
▁lifestyle	-12869
▁telephone	-12870
▁Heutzutage	-12871
▁Mobiltelef	-12872
▁Richtungen	-12873
▁Transparen	-12874
▁connecting	-12875
▁greenhouse	-12876
▁performing	-12877
▁Änderungen	-12878
▁cooperation	-12879
▁distributed	-12880
▁Privatsphäre	-12881
▁automatically	-12882
▁Lebenserwartung	-12883
ETI	-12884
mat	-12885
zig	-12886
▁4,	-12887
▁ED	-12888
▁JH	-12889
anes	-12890
etti	-12891
etts	-12892
uity	-12893
▁10.	-12894
▁20-	-12895
▁DVD	-12896
▁Geh	-12897
▁ren	-12898
▁zit	-12899
▁Übr	-12900
agnet	-12901
gespr	-12902
ognit	-12903
otter	-12904
rimin	-12905
seher	-12906
▁Bord	-12907
▁Gall	-12908
▁boom	-12909
▁cand	-12910
▁dict	-12911
▁ours	-12912
▁plug	-12913
▁stol	-12914
fische	-12915
▁Anruf	-12916
▁Asien	-12917
▁Erste	-12918
▁Schok	-12919
▁bombs	-12920
▁grows	-12921
▁mikro	-12922
▁polio	-12923
▁sport	-12924
▁style	-12925
▁zählt	-12926
prozess	-12927
▁Ganzen	-12928
▁Rezept	-12929
▁Sicher	-12930
▁Sweden	-12931
▁Wahlen	-12932
▁beherr	-12933
▁dauern	-12934
▁devast	-12935
▁mainly	-12936
▁murder	-12937
▁prepar	-12938
▁sphere	-12939
▁späten	-12940
▁Ausgang	-12941
▁Finally	-12942
▁Neugier	-12943
▁Verlauf	-12944
▁obesity	-12945
▁raising	-12946
▁schmerz	-12947
operation	-12948
▁Dokument	-12949
▁Erinnern	-12950
▁Gegenden	-12951
▁Leonardo	-12952
▁Remember	-12953
▁ausgeben	-12954
▁ernähren	-12955
▁getrennt	-12956
▁outcomes	-12957
▁printing	-12958
▁transmit	-12959
▁zurückge	-12960
▁Innerhalb	-12961
▁component	-12962
▁irgendwel	-12963
▁recording	-12964
▁spreading	-12965
▁Brustkrebs	-12966
▁directions	-12967
▁eingeführt	-12968
▁investiert	-12969
▁resistance	-12970
▁eigentliche	-12971
▁Weltbevölkerung	-12972
SP	-12973
bir	-12974
bum	-12975
eli	-12976
oca	-12977
rin	-12978
▁id	-12979
afel	-12980
aken	-12981
klin	-12982
real	-12983
rump	-12984
uste	-12985
▁BIP	-12986
▁Bor	-12987
▁Sea	-12988
▁anb	-12989
▁twe	-12990
iolet	-12991
lesen	-12992
ortet	-12993
rance	-12994
▁Dame	-12995
▁Knie	-12996
▁Läch	-12997
▁Zehn	-12998
▁cash	-12999
▁desk	-13000
▁excl	-13001
▁jail	-13002
▁lung	-13003
▁prem	-13004
▁seht	-13005
▁sque	-13006
▁verz	-13007
▁zone	-13008
fläche	-13009
gnügen	-13010
ktions	-13011
▁Larry	-13012
▁Meere	-13013
▁abuse	-13014
▁decre	-13015
▁fried	-13016
▁paras	-13017
▁rufen	-13018
ektiven	-13019
station	-13020
▁Berlin	-13021
▁Joseph	-13022
▁Kredit	-13023
▁deinem	-13024
▁fokuss	-13025
▁liebte	-13026
▁toilet	-13027
▁zufäll	-13028
pendence	-13029
▁Darüber	-13030
▁Erfolgs	-13031
▁Redwood	-13032
▁borders	-13033
▁channel	-13034
▁niedrig	-13035
▁schlägt	-13036
▁starken	-13037
▁unbelie	-13038
▁Ursprung	-13039
▁anhalten	-13040
▁anpassen	-13041
▁besuchte	-13042
▁wünschte	-13043
▁Bedrohung	-13044
▁Geschmack	-13045
▁Parkinson	-13046
▁Weltkrieg	-13047
▁corporate	-13048
▁exploring	-13049
▁sculpture	-13050
▁Dunkelheit	-13051
▁Geographic	-13052
▁Verwendung	-13053
▁genetische	-13054
▁Antibiotika	-13055
▁Eigenschaft	-13056
▁Terroristen	-13057
▁beigebracht	-13058
▁berücksicht	-13059
▁grandfather	-13060
▁populations	-13061
▁represented	-13062
▁dramatically	-13063
▁fantastische	-13064
▁surveillance	-13065
▁zurückkehren	-13066
BA	-13067
brü	-13068
ema	-13069
ila	-13070
mod	-13071
ärt	-13072
▁31	-13073
▁cm	-13074
ague	-13075
aint	-13076
dach	-13077
gewe	-13078
imps	-13079
kord	-13080
lers	-13081
älte	-13082
▁MRI	-13083
▁sed	-13084
ortex	-13085
▁Base	-13086
▁Nähr	-13087
▁bold	-13088
▁naja	-13089
▁scar	-13090
▁stun	-13091
System	-13092
auften	-13093
called	-13094
cisely	-13095
ederal	-13096
erlich	-13097
würdig	-13098
ündung	-13099
▁Berge	-13100
▁Misch	-13101
▁Moore	-13102
▁Polio	-13103
▁Proto	-13104
▁Tauch	-13105
▁enemy	-13106
▁harte	-13107
▁highl	-13108
▁persu	-13109
iveness	-13110
▁Albert	-13111
▁County	-13112
▁Econom	-13113
▁Flagge	-13114
▁Konsum	-13115
▁Oberfl	-13116
▁Shakes	-13117
▁ausges	-13118
▁proced	-13119
▁schlug	-13120
▁tanzen	-13121
▁vorhin	-13122
▁worker	-13123
anischen	-13124
computer	-13125
stellten	-13126
▁Inneren	-13127
▁January	-13128
▁Nothing	-13129
▁angehen	-13130
▁awesome	-13131
▁besucht	-13132
▁collaps	-13133
▁extinct	-13134
▁receive	-13135
▁savings	-13136
▁stretch	-13137
▁traurig	-13138
▁Autismus	-13139
▁Diabetes	-13140
▁Systemen	-13141
▁brothers	-13142
▁eingehen	-13143
▁elephant	-13144
▁gesunden	-13145
▁hardware	-13146
▁particle	-13147
▁properly	-13148
▁romantic	-13149
▁treating	-13150
▁Afrikaner	-13151
▁Plötzlich	-13152
▁animation	-13153
▁paintings	-13154
▁presented	-13155
▁spezielle	-13156
▁fascinated	-13157
▁kulturelle	-13158
▁ländlichen	-13159
▁Wasserstoff	-13160
▁antibiotics	-13161
▁moralischen	-13162
▁präsentiert	-13163
▁sogenannten	-13164
▁conventional	-13165
▁expectations	-13166
▁konfrontiert	-13167
▁Normalerweise	-13168
▁dreidimension	-13169
▁verschiedener	-13170
▁außergewöhnlich	-13171
Wo	-13172
Gen	-13173
hof	-13174
ißt	-13175
▁0,	-13176
▁42	-13177
▁IM	-13178
▁Wi	-13179
ocke	-13180
onna	-13181
opes	-13182
prom	-13183
rist	-13184
ückt	-13185
▁Had	-13186
▁IBM	-13187
▁Oxy	-13188
▁Uni	-13189
▁cas	-13190
▁fan	-13191
▁prü	-13192
▁raw	-13193
aches	-13194
folgt	-13195
isses	-13196
legte	-13197
llung	-13198
teils	-13199
änner	-13200
▁Dist	-13201
▁Ross	-13202
▁Sher	-13203
▁Shir	-13204
▁guar	-13205
▁poly	-13206
▁sexy	-13207
▁tube	-13208
utzend	-13209
öntgen	-13210
▁Block	-13211
▁Democ	-13212
▁Franz	-13213
▁Immun	-13214
▁Kongo	-13215
▁atmen	-13216
▁explo	-13217
▁scary	-13218
▁spark	-13219
▁stack	-13220
▁weißt	-13221
aktoren	-13222
related	-13223
stehung	-13224
▁Laufen	-13225
▁Rechen	-13226
▁Schild	-13227
▁Singap	-13228
▁Tasman	-13229
▁acknow	-13230
▁behave	-13231
▁candid	-13232
▁geheim	-13233
▁kaufte	-13234
▁konsum	-13235
▁machst	-13236
▁planen	-13237
▁plenty	-13238
▁prices	-13239
▁wütend	-13240
ineering	-13241
▁Analyse	-13242
▁Islamic	-13243
▁Italien	-13244
▁grossen	-13245
▁herself	-13246
▁license	-13247
▁liefert	-13248
▁neither	-13249
▁orchest	-13250
▁vessels	-13251
▁Epidemie	-13252
▁Erfinder	-13253
▁Weibchen	-13254
▁berühren	-13255
▁involves	-13256
▁maintain	-13257
▁recommen	-13258
▁traveled	-13259
▁vielmehr	-13260
▁visuelle	-13261
▁Konflikte	-13262
▁anzusehen	-13263
▁conflicts	-13264
▁denselben	-13265
▁prototype	-13266
▁uncertain	-13267
▁Funktionen	-13268
▁besonderen	-13269
▁vorsichtig	-13270
▁wundervoll	-13271
▁astonishing	-13272
▁technischen	-13273
▁Kapitalismus	-13274
▁Mathematiker	-13275
▁leidenschaft	-13276
▁interessanten	-13277
lu	-13278
aze	-13279
oen	-13280
▁Ku	-13281
Aber	-13282
erzä	-13283
pril	-13284
quis	-13285
rome	-13286
sely	-13287
ubes	-13288
yers	-13289
▁Dec	-13290
▁Seh	-13291
▁Tib	-13292
▁tea	-13293
angle	-13294
auten	-13295
eters	-13296
grade	-13297
hlend	-13298
rechn	-13299
using	-13300
▁1900	-13301
▁Diff	-13302
▁Glet	-13303
▁Haar	-13304
▁Hung	-13305
▁SETI	-13306
▁Turn	-13307
▁gray	-13308
▁laug	-13309
▁läng	-13310
bringt	-13311
gänger	-13312
örtern	-13313
▁Absol	-13314
▁Buddh	-13315
▁Delhi	-13316
▁Guten	-13317
▁Harry	-13318
▁Smart	-13319
▁Woman	-13320
▁Zähne	-13321
▁honey	-13322
▁males	-13323
▁sales	-13324
brochen	-13325
gemacht	-13326
osphere	-13327
▁Aufbau	-13328
▁Gandhi	-13329
▁Reihen	-13330
▁Sprung	-13331
▁clinic	-13332
▁fabric	-13333
▁immune	-13334
▁lebend	-13335
▁neigen	-13336
▁oberen	-13337
▁pandem	-13338
▁phrase	-13339
▁rising	-13340
▁spoken	-13341
▁Anstieg	-13342
▁Nations	-13343
▁dankbar	-13344
▁erneuer	-13345
▁geteilt	-13346
▁intense	-13347
▁painful	-13348
▁schwere	-13349
▁Atlantic	-13350
▁Richtige	-13351
▁Schulter	-13352
▁Symptome	-13353
▁concepts	-13354
▁erklärte	-13355
▁höchsten	-13356
▁kreative	-13357
▁seltsame	-13358
produktion	-13359
riedenheit	-13360
▁Gespräche	-13361
▁Internets	-13362
▁Schreiben	-13363
▁beitragen	-13364
▁chemische	-13365
▁destroyed	-13366
▁emergency	-13367
▁precisely	-13368
▁primitive	-13369
▁weltweite	-13370
▁commitment	-13371
▁exhibition	-13372
▁controlling	-13373
▁entsprechen	-13374
▁genetischen	-13375
▁productivity	-13376
▁Investitionen	-13377
▁Nachbarschaft	-13378
En	-13379
OK	-13380
any	-13381
obs	-13382
▁Gi	-13383
agte	-13384
iday	-13385
innt	-13386
plom	-13387
prim	-13388
rand	-13389
utch	-13390
wass	-13391
▁Paz	-13392
▁Vin	-13393
▁irr	-13394
anzös	-13395
estet	-13396
ikale	-13397
iller	-13398
meter	-13399
ohlen	-13400
quent	-13401
while	-13402
ämpft	-13403
▁Dick	-13404
▁Girl	-13405
▁Haie	-13406
▁Nutz	-13407
▁inkl	-13408
▁pour	-13409
▁scan	-13410
▁seek	-13411
anlage	-13412
cepted	-13413
kultur	-13414
lernen	-13415
stücke	-13416
yright	-13417
▁Level	-13418
▁Sagen	-13419
▁Stick	-13420
▁accum	-13421
▁femin	-13422
▁jenen	-13423
▁tries	-13424
▁usual	-13425
▁worum	-13426
▁Extrem	-13427
▁Januar	-13428
▁Umgang	-13429
▁escape	-13430
▁extend	-13431
▁fliegt	-13432
▁hearts	-13433
▁herein	-13434
▁narrow	-13435
▁rescue	-13436
▁soweit	-13437
äuschung	-13438
▁Clinton	-13439
▁Klavier	-13440
▁appears	-13441
▁bizarre	-13442
▁efforts	-13443
▁entered	-13444
▁französ	-13445
▁habitat	-13446
▁muscles	-13447
▁stimmen	-13448
ianischen	-13449
▁academic	-13450
▁befreien	-13451
▁breaking	-13452
▁diabetes	-13453
▁disorder	-13454
▁download	-13455
▁flexible	-13456
▁laughing	-13457
▁recovery	-13458
▁verfolgt	-13459
▁winzigen	-13460
▁Überwach	-13461
ungssystem	-13462
▁Fundament	-13463
▁Umständen	-13464
▁curiosity	-13465
▁furniture	-13466
▁gestartet	-13467
▁gezwungen	-13468
▁accessible	-13469
▁personality	-13470
▁biologischen	-13471
▁Kommunikations	-13472
--	-13473
lor	-13474
äck	-13475
änz	-13476
amie	-13477
onic	-13478
orld	-13479
phas	-13480
zero	-13481
▁193	-13482
▁Fal	-13483
▁Kuh	-13484
▁Wen	-13485
▁adm	-13486
▁hug	-13487
▁ink	-13488
▁pip	-13489
▁ärm	-13490
cence	-13491
fähig	-13492
ioxid	-13493
osing	-13494
ralen	-13495
range	-13496
viele	-13497
▁Carl	-13498
▁Wolf	-13499
▁brow	-13500
▁denk	-13501
▁diox	-13502
▁limb	-13503
acular	-13504
ienste	-13505
melzen	-13506
ptions	-13507
ziplin	-13508
▁Aller	-13509
▁Griff	-13510
▁Katze	-13511
▁liver	-13512
▁ruhig	-13513
▁schüt	-13514
▁tasks	-13515
▁title	-13516
▁unvor	-13517
▁utter	-13518
▁öfter	-13519
izabeth	-13520
▁Columb	-13521
▁Marken	-13522
▁Niveau	-13523
▁colony	-13524
▁einzuf	-13525
▁gewann	-13526
▁heroes	-13527
▁legisl	-13528
▁lovely	-13529
▁pocket	-13530
▁surely	-13531
▁winzig	-13532
▁Bericht	-13533
▁Protein	-13534
▁Treffen	-13535
▁concert	-13536
▁divided	-13537
▁finance	-13538
▁protest	-13539
▁wieviel	-13540
▁Hinblick	-13541
▁appeared	-13542
▁attached	-13543
▁erfüllen	-13544
▁gelassen	-13545
▁gemessen	-13546
▁imagined	-13547
▁manifest	-13548
▁reaching	-13549
▁Vorschlag	-13550
▁berechnen	-13551
▁customers	-13552
▁exception	-13553
▁inspiring	-13554
▁translate	-13555
ischerweise	-13556
▁Mitglieder	-13557
▁optimistic	-13558
▁Interessant	-13559
▁Neuigkeiten	-13560
▁organisiert	-13561
▁entertainment	-13562
▁identifizieren	-13563
bi	-13564
▁/	-13565
Ach	-13566
eff	-13567
reu	-13568
ürt	-13569
abin	-13570
appt	-13571
inke	-13572
schn	-13573
yrus	-13574
ühen	-13575
▁192	-13576
▁Mem	-13577
▁woo	-13578
▁wär	-13579
Unter	-13580
acted	-13581
class	-13582
oiden	-13583
▁Anti	-13584
▁Chip	-13585
▁Euch	-13586
▁Saal	-13587
▁appe	-13588
▁dumm	-13589
▁ehem	-13590
▁refr	-13591
▁tech	-13592
▁wing	-13593
igaret	-13594
ikatur	-13595
messer	-13596
uition	-13597
▁Enkel	-13598
▁Hawai	-13599
▁Still	-13600
▁Stone	-13601
▁orbit	-13602
▁shake	-13603
▁smoke	-13604
▁spell	-13605
▁units	-13606
century	-13607
gebiete	-13608
osphäre	-13609
▁Früher	-13610
▁Metern	-13611
▁Portug	-13612
▁Social	-13613
▁Widers	-13614
▁Wright	-13615
▁Wälder	-13616
▁agenda	-13617
▁kaputt	-13618
▁powers	-13619
▁repeat	-13620
▁thrown	-13621
romagnet	-13622
▁Abraham	-13623
▁Montere	-13624
▁Verschw	-13625
▁Vorgang	-13626
▁brechen	-13627
▁density	-13628
▁dignity	-13629
▁dunklen	-13630
▁positiv	-13631
▁Diagnose	-13632
▁Personal	-13633
▁anstelle	-13634
▁leuchten	-13635
▁magnetic	-13636
▁shoulder	-13637
▁sinnvoll	-13638
▁vernünft	-13639
geschlagen	-13640
▁Plattform	-13641
▁Verfahren	-13642
▁Vergnügen	-13643
▁Verlangen	-13644
▁chocolate	-13645
▁committed	-13646
▁depending	-13647
▁gesammelt	-13648
▁mitnehmen	-13649
▁dazwischen	-13650
▁department	-13651
▁regelmäßig	-13652
▁Alternative	-13653
▁Einfachheit	-13654
▁Katastrophe	-13655
▁chinesische	-13656
▁interacting	-13657
▁Einrichtungen	-13658
▁Gleichgewicht	-13659
BC	-13660
Let	-13661
kra	-13662
ype	-13663
▁29	-13664
ackt	-13665
brid	-13666
fehl	-13667
lies	-13668
ppen	-13669
▁Cou	-13670
▁Wes	-13671
▁ate	-13672
▁bon	-13673
▁wem	-13674
aders	-13675
aumen	-13676
iente	-13677
oppel	-13678
peare	-13679
riebs	-13680
usted	-13681
▁Farm	-13682
▁Feed	-13683
▁Iron	-13684
▁Kond	-13685
▁Next	-13686
▁Pole	-13687
▁Zero	-13688
▁gefl	-13689
▁jewe	-13690
▁rush	-13691
▁till	-13692
▁ugly	-13693
folgen	-13694
iratet	-13695
ktoren	-13696
lichem	-13697
▁Bibel	-13698
▁Sorge	-13699
▁Szene	-13700
▁bewir	-13701
▁hoher	-13702
▁korre	-13703
▁könne	-13704
▁pyram	-13705
▁therm	-13706
▁yield	-13707
▁youth	-13708
problem	-13709
quently	-13710
uchtung	-13711
▁Atomen	-13712
▁Church	-13713
▁Großen	-13714
▁Höhlen	-13715
▁Michel	-13716
▁Reisen	-13717
▁divide	-13718
▁eradic	-13719
▁linear	-13720
▁stirbt	-13721
▁verlor	-13722
▁wenden	-13723
American	-13724
gelassen	-13725
▁Muskeln	-13726
▁Ursache	-13727
▁aspects	-13728
▁ceiling	-13729
▁cheaper	-13730
▁dioxide	-13731
▁erinner	-13732
▁gesetzt	-13733
▁höheren	-13734
▁militär	-13735
▁monitor	-13736
▁whereas	-13737
ränkungen	-13738
▁Behinder	-13739
▁Fahrzeug	-13740
▁Sensoren	-13741
▁achieved	-13742
▁dominant	-13743
▁embedded	-13744
▁gründete	-13745
▁hierarch	-13746
▁hindurch	-13747
▁riesiges	-13748
▁sandwich	-13749
▁Belohnung	-13750
▁Entschuld	-13751
▁ausmachen	-13752
▁physische	-13753
▁virtually	-13754
▁Geschäftsm	-13755
▁angemessen	-13756
▁reparieren	-13757
▁volunteers	-13758
▁glücklicher	-13759
▁wunderschöne	-13760
wa	-13761
zz	-13762
via	-13763
▁Hu	-13764
▁JA	-13765
▁JF	-13766
▁Sn	-13767
▁är	-13768
bart	-13769
idet	-13770
ockt	-13771
▁Bef	-13772
▁CEO	-13773
▁Kos	-13774
▁Lux	-13775
▁Prü	-13776
▁enl	-13777
▁tip	-13778
gehör	-13779
riffe	-13780
rückt	-13781
▁Grie	-13782
▁NGOs	-13783
▁Real	-13784
▁axis	-13785
▁cute	-13786
▁flip	-13787
▁glac	-13788
▁warf	-13789
gender	-13790
klasse	-13791
wählen	-13792
▁April	-13793
▁Beton	-13794
▁Front	-13795
▁Gebur	-13796
▁Knopf	-13797
▁Küche	-13798
▁Ocean	-13799
▁Sechs	-13800
▁aband	-13801
▁advoc	-13802
▁alien	-13803
▁brach	-13804
▁dense	-13805
▁schol	-13806
▁sheep	-13807
▁verur	-13808
gencies	-13809
▁50,000	-13810
▁Geruch	-13811
▁Organe	-13812
▁Teufel	-13813
▁bildet	-13814
▁conven	-13815
▁hassen	-13816
▁ignore	-13817
▁kommer	-13818
gression	-13819
▁Charlie	-13820
▁Flächen	-13821
▁Konstru	-13822
▁Röntgen	-13823
▁Skelett	-13824
▁Spinnen	-13825
▁bicycle	-13826
▁distant	-13827
▁footage	-13828
▁lernten	-13829
▁reflekt	-13830
▁section	-13831
technolog	-13832
ulationen	-13833
▁Ausnahme	-13834
▁Gedichte	-13835
▁Monterey	-13836
▁Prozesse	-13837
▁estimate	-13838
▁guarante	-13839
▁heiraten	-13840
▁reported	-13841
▁shooting	-13842
▁veränder	-13843
▁apartment	-13844
▁colleague	-13845
▁dimension	-13846
▁insurance	-13847
▁Strategien	-13848
▁incentives	-13849
▁langweilig	-13850
▁recognized	-13851
▁Komponenten	-13852
▁Präsidenten	-13853
▁analysieren	-13854
▁zurückgehen	-13855
▁photographer	-13856
▁neighborhoods	-13857
gu	-13858
arp	-13859
eds	-13860
ela	-13861
hew	-13862
sec	-13863
top	-13864
öch	-13865
▁37	-13866
▁Ka	-13867
▁TK	-13868
cont	-13869
osit	-13870
vier	-13871
▁Dir	-13872
▁Fro	-13873
ading	-13874
athon	-13875
fined	-13876
oenix	-13877
ätten	-13878
ürzen	-13879
▁Bier	-13880
▁Glüh	-13881
▁Ruhe	-13882
▁Term	-13883
▁ausb	-13884
▁cens	-13885
▁fulf	-13886
▁lieb	-13887
▁sink	-13888
▁toys	-13889
▁triv	-13890
action	-13891
ailand	-13892
graben	-13893
ighted	-13894
▁Camer	-13895
▁Prior	-13896
▁Subst	-13897
▁Trend	-13898
▁brown	-13899
▁chest	-13900
▁einzu	-13901
▁elder	-13902
▁knock	-13903
▁meter	-13904
▁purch	-13905
▁route	-13906
▁saßen	-13907
▁schme	-13908
▁20,000	-13909
▁Bedarf	-13910
▁Dialog	-13911
▁Proben	-13912
▁Spring	-13913
▁Vortra	-13914
▁Zurück	-13915
▁frozen	-13916
▁keines	-13917
▁ladies	-13918
▁neural	-13919
▁qualif	-13920
▁schaue	-13921
▁signed	-13922
▁silent	-13923
▁wahren	-13924
▁Blätter	-13925
▁Dadurch	-13926
▁Dutzend	-13927
▁Lächeln	-13928
▁balloon	-13929
▁crucial	-13930
▁entfern	-13931
▁mächtig	-13932
▁opposed	-13933
▁Africans	-13934
▁Aufstieg	-13935
▁Virginia	-13936
▁accepted	-13937
▁criminal	-13938
▁dolphins	-13939
▁equality	-13940
▁erwähnen	-13941
▁horizont	-13942
▁provides	-13943
▁spannend	-13944
▁verzweif	-13945
▁Ökonomen	-13946
▁Übergang	-13947
▁berichtet	-13948
▁describes	-13949
▁elsewhere	-13950
▁mittleren	-13951
▁privilege	-13952
▁weibliche	-13953
▁Schwestern	-13954
▁collecting	-13955
▁ignorieren	-13956
▁motivation	-13957
▁transparen	-13958
▁electronics	-13959
▁irgendeinem	-13960
▁Ungleichheit	-13961
▁Verbesserung	-13962
▁elektrischen	-13963
▁mittlerweile	-13964
▁Universitäten	-13965
▁traditionelle	-13966
“.	-13967
jet	-13968
war	-13969
züg	-13970
▁BM	-13971
▁EM	-13972
▁Rö	-13973
AIDS	-13974
ahen	-13975
atts	-13976
fine	-13977
ktis	-13978
rest	-13979
rins	-13980
ürzt	-13981
▁Ara	-13982
▁Mov	-13983
▁Neg	-13984
▁Ohr	-13985
▁Sag	-13986
▁Wut	-13987
▁les	-13988
▁lit	-13989
There	-13990
geord	-13991
habil	-13992
itial	-13993
keley	-13994
küste	-13995
ouver	-13996
ruppe	-13997
schle	-13998
▁2020	-13999
▁Cour	-14000
▁Fing	-14001
▁Füße	-14002
▁Laur	-14003
▁adop	-14004
▁klug	-14005
▁prev	-14006
▁sche	-14007
annter	-14008
dollar	-14009
ersten	-14010
fältig	-14011
geräte	-14012
usalem	-14013
▁Hitze	-14014
▁Hören	-14015
▁Logik	-14016
▁Poliz	-14017
▁Voice	-14018
▁finds	-14019
▁illeg	-14020
▁jenem	-14021
▁likes	-14022
▁prost	-14023
▁reput	-14024
▁stieg	-14025
▁tired	-14026
▁womit	-14027
ichtung	-14028
spieler	-14029
staaten	-14030
▁Glücks	-14031
▁Medium	-14032
▁beseit	-14033
▁billig	-14034
▁distra	-14035
▁evolve	-14036
▁freund	-14037
▁legacy	-14038
▁oldest	-14039
▁retire	-14040
▁reveal	-14041
▁shadow	-14042
▁öffnet	-14043
aufgaben	-14044
▁Neander	-14045
▁Wurzeln	-14046
▁beliefs	-14047
▁kreiert	-14048
▁scratch	-14049
▁suicide	-14050
▁trigger	-14051
▁wanting	-14052
▁Children	-14053
▁Gebieten	-14054
▁Narrator	-14055
▁begrenzt	-14056
▁captured	-14057
▁contains	-14058
▁meetings	-14059
handlungen	-14060
▁Toiletten	-14061
▁Weihnacht	-14062
▁backwards	-14063
▁continues	-14064
▁dedicated	-14065
▁generated	-14066
▁telescope	-14067
▁Jedenfalls	-14068
▁Prototypen	-14069
▁arabischen	-14070
▁contribute	-14071
▁emotionale	-14072
▁engagement	-14073
▁simplicity	-14074
▁strategies	-14075
▁Philosophie	-14076
▁disappeared	-14077
▁spectacular	-14078
▁wundervolle	-14079
▁Unternehmens	-14080
▁Menschlichkeit	-14081
üd	-14082
?",	-14083
And	-14084
lan	-14085
▁Wa	-14086
achs	-14087
nern	-14088
rons	-14089
städ	-14090
▁Jay	-14091
▁cup	-14092
▁nit	-14093
▁ras	-14094
amine	-14095
athed	-14096
gebra	-14097
iance	-14098
ikely	-14099
kohol	-14100
spect	-14101
ächer	-14102
▁Doug	-14103
▁Jord	-14104
▁Juni	-14105
▁Myth	-14106
▁Pink	-14107
▁Work	-14108
▁ages	-14109
▁fung	-14110
▁halt	-14111
▁häss	-14112
chtern	-14113
handel	-14114
körper	-14115
ropfen	-14116
▁Hyper	-14117
▁Simon	-14118
▁abund	-14119
▁aside	-14120
▁dicht	-14121
▁drove	-14122
▁exakt	-14123
▁fluid	-14124
▁gelie	-14125
▁islam	-14126
▁japan	-14127
▁judge	-14128
▁laser	-14129
▁lokal	-14130
▁verpf	-14131
▁wirft	-14132
Projekt	-14133
erkrank	-14134
schafft	-14135
▁Besitz	-14136
▁Erzähl	-14137
▁Fahrer	-14138
▁Kommen	-14139
▁Leiden	-14140
▁Palest	-14141
▁Tränen	-14142
▁dialog	-14143
▁drehte	-14144
▁hardly	-14145
▁hungry	-14146
▁interf	-14147
▁paraly	-14148
▁scales	-14149
▁tricks	-14150
▁vierte	-14151
▁Handeln	-14152
▁benutze	-14153
▁exposed	-14154
▁instant	-14155
▁pretend	-14156
▁reflect	-14157
▁removed	-14158
▁stammen	-14159
▁tragedy	-14160
▁änderte	-14161
▁Batterie	-14162
▁Pinguine	-14163
▁Schlagze	-14164
▁ausgesch	-14165
▁confront	-14166
▁controls	-14167
▁darkness	-14168
▁frighten	-14169
▁globally	-14170
▁minister	-14171
▁produces	-14172
▁schickte	-14173
▁sozialer	-14174
▁theories	-14175
▁verletzt	-14176
▁vertical	-14177
▁Effizienz	-14178
▁Höhepunkt	-14179
▁Treibhaus	-14180
▁authentic	-14181
▁gegenwärt	-14182
▁insgesamt	-14183
▁neugierig	-14184
▁politisch	-14185
▁reduction	-14186
▁searching	-14187
▁boundaries	-14188
▁earthquake	-14189
▁functional	-14190
▁gemeinnütz	-14191
▁historical	-14192
▁nachhaltig	-14193
▁Anwendungen	-14194
▁Konsumenten	-14195
▁Shakespeare	-14196
▁anscheinend	-14197
▁innovations	-14198
▁schizophren	-14199
▁schlimmsten	-14200
▁unternehmen	-14201
▁Katastrophen	-14202
▁Medikamenten	-14203
▁neuroscience	-14204
vy	-14205
yo	-14206
Auf	-14207
hma	-14208
lem	-14209
pal	-14210
til	-14211
urd	-14212
zur	-14213
azin	-14214
case	-14215
eral	-14216
hold	-14217
miss	-14218
uana	-14219
▁Kok	-14220
▁Lad	-14221
▁wet	-14222
gänge	-14223
lösen	-14224
worth	-14225
▁2003	-14226
▁Brad	-14227
▁Ehre	-14228
▁Klar	-14229
▁Koch	-14230
▁Näch	-14231
▁Wäre	-14232
▁aust	-14233
▁defe	-14234
▁dump	-14235
▁leap	-14236
▁rely	-14237
etball	-14238
etzung	-14239
mensch	-14240
▁Fried	-14241
▁Gramm	-14242
▁Leber	-14243
▁Louis	-14244
▁Robot	-14245
▁Serie	-14246
▁Wände	-14247
▁angle	-14248
▁begrü	-14249
▁crack	-14250
▁fruit	-14251
▁geöff	-14252
▁leist	-14253
▁recyc	-14254
▁reefs	-14255
▁seeds	-14256
▁veter	-14257
forward	-14258
ospiele	-14259
projekt	-14260
quellen	-14261
▁Indeed	-14262
▁Joshua	-14263
▁Nature	-14264
▁Rwanda	-14265
▁actors	-14266
▁chosen	-14267
▁crying	-14268
▁echtes	-14269
▁facial	-14270
▁feiern	-14271
▁formal	-14272
▁inject	-14273
▁innere	-14274
▁intuit	-14275
▁nahezu	-14276
▁rating	-14277
▁trends	-14278
▁weapon	-14279
children	-14280
▁Büchern	-14281
▁Eastern	-14282
▁Schokol	-14283
▁anthrop	-14284
▁charity	-14285
▁implant	-14286
▁lebende	-14287
▁lecture	-14288
▁letting	-14289
▁methods	-14290
▁radikal	-14291
▁richten	-14292
▁touched	-14293
▁Feedback	-14294
▁eröffnet	-14295
▁football	-14296
▁laughter	-14297
▁northern	-14298
▁organize	-14299
▁stations	-14300
▁unlikely	-14301
▁Elizabeth	-14302
▁Karikatur	-14303
▁Nachfrage	-14304
▁abgesehen	-14305
▁indischen	-14306
▁intention	-14307
▁Handlungen	-14308
▁Motivation	-14309
▁Organismus	-14310
▁Wichtigste	-14311
▁governance	-14312
▁microscope	-14313
▁Oberflächen	-14314
▁Transparenz	-14315
▁advertising	-14316
▁ingredients	-14317
▁philanthrop	-14318
▁photography	-14319
▁universities	-14320
CH	-14321
Fi	-14322
▁4.	-14323
▁AM	-14324
▁RM	-14325
▁UC	-14326
▁kg	-14327
kopf	-14328
oots	-14329
rick	-14330
äger	-14331
▁190	-14332
▁Göt	-14333
▁Ign	-14334
▁Oct	-14335
▁Sav	-14336
▁enh	-14337
Mails	-14338
athol	-14339
olera	-14340
ringe	-14341
thiop	-14342
ttern	-14343
▁2001	-14344
▁Brut	-14345
▁Mahl	-14346
▁Muse	-14347
▁beer	-14348
▁choo	-14349
▁dish	-14350
▁eval	-14351
▁hing	-14352
▁mail	-14353
▁umso	-14354
sprach	-14355
vested	-14356
▁Never	-14357
▁Staub	-14358
▁Wärme	-14359
▁blank	-14360
▁dient	-14361
▁minor	-14362
▁views	-14363
▁übern	-14364
angehen	-14365
unclear	-14366
wandeln	-14367
▁Katzen	-14368
▁Muskel	-14369
▁Nathan	-14370
▁Preise	-14371
▁Ratten	-14372
▁Rollen	-14373
▁Werden	-14374
▁aufzus	-14375
▁auszud	-14376
▁beides	-14377
▁bother	-14378
▁degrad	-14379
▁durchd	-14380
▁locked	-14381
▁missed	-14382
▁muslim	-14383
▁underg	-14384
▁verlei	-14385
ierendes	-14386
mögliche	-14387
▁Everest	-14388
▁attract	-14389
▁essence	-14390
▁gewöhnt	-14391
▁graphic	-14392
▁inspire	-14393
▁suspect	-14394
▁symbols	-14395
▁unsicht	-14396
▁verletz	-14397
▁Berkeley	-14398
▁Fantasie	-14399
▁Teleskop	-14400
▁Umstände	-14401
▁aircraft	-14402
▁aktuelle	-14403
▁ausmacht	-14404
▁früheren	-14405
▁nebenbei	-14406
▁schwerer	-14407
▁wahrhaft	-14408
▁überlebt	-14409
▁Architekt	-14410
▁Bedürfnis	-14411
▁Techniken	-14412
▁Versuchen	-14413
▁infiziert	-14414
▁mechanics	-14415
▁inzwischen	-14416
▁protecting	-14417
▁probability	-14418
▁underground	-14419
Reg	-14420
▁Bu	-14421
itis	-14422
reme	-14423
rich	-14424
utan	-14425
öten	-14426
▁15-	-14427
▁Fer	-14428
▁Seb	-14429
▁Syl	-14430
▁Tri	-14431
▁Van	-14432
▁ham	-14433
iefer	-14434
kunst	-14435
rence	-14436
ronen	-14437
▁..."	-14438
▁Held	-14439
▁Konz	-14440
▁anfü	-14441
▁batt	-14442
▁debt	-14443
▁dick	-14444
▁flog	-14445
▁golf	-14446
▁mold	-14447
▁spin	-14448
enness	-14449
fahrer	-14450
istern	-14451
tempor	-14452
uelles	-14453
vision	-14454
zenten	-14455
▁Craig	-14456
▁Ernst	-14457
▁Pferd	-14458
▁Risik	-14459
▁breit	-14460
▁chief	-14461
▁march	-14462
▁skull	-14463
▁stets	-14464
äuschen	-14465
▁Disney	-14466
▁Gipfel	-14467
▁Jewish	-14468
▁Klinik	-14469
▁Mannes	-14470
▁Really	-14471
▁Würden	-14472
▁barely	-14473
▁borrow	-14474
▁enthus	-14475
▁intent	-14476
▁offene	-14477
▁poster	-14478
▁tenden	-14479
inkommen	-14480
▁Erstaun	-14481
▁Fremden	-14482
▁amongst	-14483
▁constru	-14484
▁enormen	-14485
▁ethical	-14486
▁höchste	-14487
▁jeweils	-14488
▁origami	-14489
▁setzten	-14490
▁trocken	-14491
▁Arbeitsk	-14492
▁Biologen	-14493
▁Einblick	-14494
▁Fotograf	-14495
▁Hinweise	-14496
▁Konzentr	-14497
▁Oxytocin	-14498
▁ausgehen	-14499
▁getestet	-14500
▁hingehen	-14501
▁Maßnahmen	-14502
▁antworten	-14503
▁benutzten	-14504
▁musicians	-14505
▁nachdenkt	-14506
▁nationale	-14507
▁Versorgung	-14508
▁affordable	-14509
▁resolution	-14510
▁treatments	-14511
▁demonstrate	-14512
▁Globalisierung	-14513
Fl	-14514
isa	-14515
oie	-14516
pan	-14517
▁0.	-14518
▁72	-14519
beln	-14520
etik	-14521
lime	-14522
lter	-14523
male	-14524
olas	-14525
unft	-14526
zone	-14527
äher	-14528
▁17.	-14529
▁Bek	-14530
▁obl	-14531
▁rub	-14532
▁ört	-14533
deten	-14534
embly	-14535
going	-14536
romos	-14537
stern	-14538
wohnt	-14539
▁Beat	-14540
▁Kühl	-14541
▁Line	-14542
▁Love	-14543
▁Mall	-14544
▁Mumb	-14545
▁Stil	-14546
▁Vict	-14547
▁bias	-14548
▁boss	-14549
▁dust	-14550
▁east	-14551
▁eind	-14552
▁fram	-14553
▁glad	-14554
▁quer	-14555
▁vorn	-14556
Global	-14557
archie	-14558
iellen	-14559
lessly	-14560
schild	-14561
school	-14562
straße	-14563
wellen	-14564
▁Bruce	-14565
▁Indus	-14566
▁Marke	-14567
▁Santa	-14568
▁Watch	-14569
▁anste	-14570
▁beruh	-14571
▁craft	-14572
▁crops	-14573
▁dirty	-14574
▁fifth	-14575
▁guide	-14576
▁heben	-14577
▁pione	-14578
▁realm	-14579
▁stops	-14580
▁tears	-14581
▁wings	-14582
bleiben	-14583
▁Abhäng	-14584
▁achiev	-14585
▁adding	-14586
▁ehemal	-14587
▁intrig	-14588
▁invite	-14589
▁layers	-14590
▁simult	-14591
▁smooth	-14592
▁stages	-14593
▁tribes	-14594
gefallen	-14595
gleichen	-14596
jähriger	-14597
▁Alkohol	-14598
▁Brother	-14599
▁Flederm	-14600
▁Kinders	-14601
▁bedeckt	-14602
▁geraten	-14603
▁heutige	-14604
▁liberal	-14605
▁suspend	-14606
▁tauchen	-14607
▁verließ	-14608
▁widersp	-14609
▁zuhören	-14610
akthrough	-14611
aktivität	-14612
volutions	-14613
▁Diplomat	-14614
▁Schweine	-14615
▁Vermögen	-14616
▁aufrecht	-14617
▁contract	-14618
▁einziges	-14619
▁kleinere	-14620
▁lighting	-14621
▁pregnant	-14622
▁privaten	-14623
▁symmetry	-14624
▁Übrigens	-14625
▁Ansichten	-14626
▁accidents	-14627
▁empfinden	-14628
▁implement	-14629
▁kommerzie	-14630
▁physicist	-14631
▁ähnlichen	-14632
▁apparently	-14633
▁verstecken	-14634
▁wiederholt	-14635
▁wirklichen	-14636
▁vorgestellt	-14637
▁chinesischen	-14638
▁festgestellt	-14639
▁Geschichtenerzä	-14640
idi	-14641
obb	-14642
ozi	-14643
pat	-14644
▁48	-14645
▁MR	-14646
▁Us	-14647
ahar	-14648
akul	-14649
gebä	-14650
mass	-14651
meid	-14652
strö	-14653
ulum	-14654
▁Dop	-14655
▁Six	-14656
▁Soc	-14657
▁Tok	-14658
▁hip	-14659
▁lap	-14660
▁liv	-14661
▁sle	-14662
liest	-14663
selbe	-14664
äufer	-14665
▁Appl	-14666
▁Fels	-14667
▁Pitt	-14668
▁Sier	-14669
▁Sper	-14670
▁Wirk	-14671
▁dive	-14672
▁gefr	-14673
▁hire	-14674
Wissen	-14675
▁2000,	-14676
▁2007,	-14677
▁2009,	-14678
▁Bible	-14679
▁Figur	-14680
▁Frühl	-14681
▁Künst	-14682
▁Lesen	-14683
▁Schon	-14684
▁Somal	-14685
▁Waffe	-14686
▁Werke	-14687
▁altes	-14688
▁conce	-14689
▁drill	-14690
▁freie	-14691
▁miser	-14692
▁verbr	-14693
▁wound	-14694
cellent	-14695
politik	-14696
ylinder	-14697
▁Mozart	-14698
▁Tasche	-14699
▁Varian	-14700
▁allgem	-14701
▁commod	-14702
▁emphas	-14703
▁fertil	-14704
▁fließt	-14705
▁keinem	-14706
▁mochte	-14707
▁poison	-14708
▁stable	-14709
▁umwelt	-14710
▁untern	-14711
▁verbre	-14712
▁waters	-14713
▁ältere	-14714
▁Anthrop	-14715
▁Betrieb	-14716
▁Lehrern	-14717
▁Pflanze	-14718
▁Seattle	-14719
▁Sequenz	-14720
▁advance	-14721
▁consume	-14722
▁defense	-14723
▁extract	-14724
▁granted	-14725
▁indigen	-14726
▁interse	-14727
▁paradox	-14728
▁prosper	-14729
▁shelter	-14730
▁visited	-14731
▁wheelch	-14732
▁Gebrauch	-14733
▁Gebäudes	-14734
▁isolated	-14735
▁official	-14736
▁textbook	-14737
▁Änderung	-14738
▁Jerusalem	-14739
▁Resultate	-14740
▁aktuellen	-14741
▁erhielten	-14742
▁gestaltet	-14743
▁inklusive	-14744
▁letztlich	-14745
▁passwords	-14746
▁strangers	-14747
▁uncomfort	-14748
▁Department	-14749
▁Rückenmark	-14750
▁mechanisms	-14751
▁mysterious	-14752
▁terrorists	-14753
▁vereinfach	-14754
▁übersetzen	-14755
▁diskutieren	-14756
▁kulturellen	-14757
▁breakthrough	-14758
▁transparency	-14759
organisationen	-14760
▁communications	-14761
▁+	-14762
Can	-14763
Und	-14764
eid	-14765
iva	-14766
kes	-14767
nik	-14768
pox	-14769
▁Kh	-14770
eing	-14771
fäll	-14772
oole	-14773
stör	-14774
viet	-14775
üten	-14776
▁130	-14777
▁Bür	-14778
▁Zie	-14779
▁dum	-14780
▁fed	-14781
▁lux	-14782
▁wed	-14783
cular	-14784
dauer	-14785
größe	-14786
▁Abed	-14787
▁Data	-14788
▁Rein	-14789
▁Thun	-14790
▁anst	-14791
▁entt	-14792
▁lift	-14793
▁peer	-14794
▁trat	-14795
▁tuna	-14796
▁unin	-14797
▁Ökos	-14798
breite	-14799
enschw	-14800
räumen	-14801
▁Anrei	-14802
▁Autob	-14803
▁Italy	-14804
▁Links	-14805
▁balls	-14806
▁disag	-14807
▁enthü	-14808
▁legte	-14809
▁minus	-14810
▁recru	-14811
▁relax	-14812
▁seats	-14813
▁yours	-14814
version	-14815
▁Anweis	-14816
▁Bomben	-14817
▁Mumbai	-14818
▁Philip	-14819
▁Vagina	-14820
▁Vorder	-14821
▁erlaub	-14822
▁output	-14823
▁shrimp	-14824
▁strand	-14825
▁transc	-14826
▁wartet	-14827
▁Atlanta	-14828
▁Schnell	-14829
▁gesunde	-14830
▁initial	-14831
▁passing	-14832
▁pointed	-14833
▁pulling	-14834
▁Baseball	-14835
▁Erschein	-14836
▁Gefahren	-14837
▁Griechen	-14838
▁Jonathan	-14839
▁Mitglied	-14840
▁Schwarze	-14841
▁Therapie	-14842
▁anbieten	-14843
▁bekannte	-14844
▁bewahren	-14845
▁database	-14846
▁external	-14847
▁geworfen	-14848
▁geöffnet	-14849
▁jährlich	-14850
▁surfaces	-14851
▁vorwärts	-14852
▁Abenteuer	-14853
▁Statistik	-14854
▁announced	-14855
▁bedeutend	-14856
▁depressed	-14857
▁elections	-14858
▁verpflich	-14859
▁verrückte	-14860
▁Ausrüstung	-14861
▁Entstehung	-14862
▁afterwards	-14863
▁ecosystems	-14864
▁Unterwasser	-14865
▁Videospiele	-14866
▁chimpanzees	-14867
▁einzigartig	-14868
▁zukünftigen	-14869
▁hinsichtlich	-14870
▁surprisingly	-14871
▁Zufriedenheit	-14872
▁beeindruckend	-14873
▁repräsentiert	-14874
Ah	-14875
Cl	-14876
IN	-14877
aws	-14878
isy	-14879
udd	-14880
zum	-14881
▁46	-14882
▁AT	-14883
▁DP	-14884
Bahn	-14885
baum	-14886
ilit	-14887
ktar	-14888
phys	-14889
stal	-14890
uens	-14891
▁Amb	-14892
▁Bez	-14893
▁Dal	-14894
▁Jup	-14895
▁bot	-14896
▁tum	-14897
allow	-14898
krise	-14899
mächt	-14900
reise	-14901
▁2030	-14902
▁Astr	-14903
▁Coca	-14904
▁Egal	-14905
▁Hind	-14906
▁Jill	-14907
▁Sund	-14908
▁bask	-14909
bsites	-14910
fällig	-14911
gested	-14912
spanne	-14913
spunkt	-14914
ubbles	-14915
▁Achse	-14916
▁Extra	-14917
▁Haare	-14918
▁Keith	-14919
▁Lewis	-14920
▁Medic	-14921
▁Mäuse	-14922
▁hydro	-14923
▁jelly	-14924
▁liebt	-14925
[...]
